{
  "vocab_size": 1200,
  "merges": {
    "105,110": 256,
    "101,32": 257,
    "116,104": 258,
    "115,32": 259,
    "100,32": 260,
    "44,32": 261,
    "101,114": 262,
    "110,32": 263,
    "108,101": 264,
    "97,116": 265,
    "97,114": 266,
    "256,103": 267,
    "97,110": 268,
    "97,108": 269,
    "258,257": 270,
    "121,32": 271,
    "101,260": 272,
    "267,32": 273,
    "101,110": 274,
    "114,111": 275,
    "105,99": 276,
    "46,32": 277,
    "111,114": 278,
    "101,116": 279,
    "101,112": 280,
    "105,111": 281,
    "97,32": 282,
    "111,102": 283,
    "283,32": 284,
    "269,32": 285,
    "100,101": 286,
    "256,32": 287,
    "112,275": 288,
    "105,259": 289,
    "114,101": 290,
    "115,116": 291,
    "49,57": 292,
    "99,111": 293,
    "268,260": 294,
    "116,111": 295,
    "264,266": 296,
    "296,110": 297,
    "99,104": 298,
    "109,97": 299,
    "265,32": 300,
    "105,258": 301,
    "105,116": 302,
    "117,108": 303,
    "277,73": 304,
    "304,263": 305,
    "280,32": 306,
    "117,114": 307,
    "112,262": 308,
    "111,115": 309,
    "116,32": 310,
    "109,32": 311,
    "297,273": 312,
    "258,300": 313,
    "97,115": 314,
    "266,116": 315,
    "285,110": 316,
    "279,119": 317,
    "317,278": 318,
    "318,107": 319,
    "119,301": 320,
    "320,32": 321,
    "274,116": 322,
    "262,32": 323,
    "115,261": 324,
    "101,108": 325,
    "286,306": 326,
    "98,271": 327,
    "98,108": 328,
    "45,108": 329,
    "97,121": 330,
    "105,103": 331,
    "281,110": 332,
    "111,119": 333,
    "109,111": 334,
    "118,257": 335,
    "295,32": 336,
    "97,103": 337,
    "117,110": 338,
    "114,97": 339,
    "111,263": 340,
    "319,259": 341,
    "281,263": 342,
    "119,97": 343,
    "102,278": 344,
    "111,108": 345,
    "99,107": 346,
    "109,303": 347,
    "108,268": 348,
    "117,311": 349,
    "279,32": 350,
    "102,276": 351,
    "351,105": 352,
    "101,307": 353,
    "353,316": 354,
    "265,342": 355,
    "277,84": 356,
    "98,101": 357,
    "116,275": 358,
    "287,292": 359,
    "329,330": 360,
    "360,323": 361,
    "361,110": 362,
    "272,270": 363,
    "32,288": 364,
    "269,264": 365,
    "97,346": 366,
    "117,116": 367,
    "109,109": 368,
    "348,103": 369,
    "369,117": 370,
    "370,337": 371,
    "118,325": 372,
    "99,116": 373,
    "101,109": 374,
    "97,98": 375,
    "117,268": 376,
    "376,116": 377,
    "112,104": 378,
    "282,115": 379,
    "299,298": 380,
    "380,256": 381,
    "381,257": 382,
    "315,105": 383,
    "383,352": 384,
    "290,115": 385,
    "356,104": 386,
    "326,312": 387,
    "97,263": 388,
    "99,280": 389,
    "389,358": 390,
    "272,327": 391,
    "82,309": 392,
    "103,257": 393,
    "105,115": 394,
    "110,111": 395,
    "109,259": 396,
    "256,116": 397,
    "305,270": 398,
    "108,333": 399,
    "115,105": 400,
    "290,97": 401,
    "334,100": 402,
    "402,262": 403,
    "403,263": 404,
    "274,262": 405,
    "46,10": 406,
    "103,339": 407,
    "407,368": 408,
    "371,101": 409,
    "293,109": 410,
    "305,292": 411,
    "377,349": 412,
    "115,276": 413,
    "112,309": 414,
    "117,98": 415,
    "98,314": 416,
    "316,354": 417,
    "114,280": 418,
    "418,385": 419,
    "419,322": 420,
    "297,267": 421,
    "386,257": 422,
    "278,271": 423,
    "284,387": 424,
    "308,390": 425,
    "425,263": 426,
    "53,55": 427,
    "392,274": 428,
    "428,328": 429,
    "429,265": 430,
    "430,116": 431,
    "343,259": 432,
    "267,264": 433,
    "433,362": 434,
    "286,115": 435,
    "332,277": 436,
    "271,294": 437,
    "32,80": 438,
    "273,313": 439,
    "115,345": 440,
    "256,101": 441,
    "79,82": 442,
    "99,365": 443,
    "443,260": 444,
    "270,102": 445,
    "398,292": 446,
    "48,324": 447,
    "111,112": 448,
    "295,110": 449,
    "261,294": 450,
    "269,399": 451,
    "347,116": 452,
    "336,98": 453,
    "453,257": 454,
    "104,32": 455,
    "97,109": 456,
    "78,350": 457,
    "109,266": 458,
    "273,270": 459,
    "325,108": 460,
    "274,99": 461,
    "461,101": 462,
    "408,273": 463,
    "463,409": 464,
    "117,115": 465,
    "256,291": 466,
    "117,373": 467,
    "410,112": 468,
    "468,367": 469,
    "108,271": 470,
    "259,284": 471,
    "331,104": 472,
    "45,264": 473,
    "473,372": 474,
    "344,347": 475,
    "97,259": 476,
    "101,120": 477,
    "401,100": 478,
    "375,105": 479,
    "479,108": 480,
    "480,302": 481,
    "115,121": 482,
    "109,101": 483,
    "378,121": 484,
    "484,413": 485,
    "112,315": 486,
    "486,276": 487,
    "405,103": 488,
    "488,271": 489,
    "68,101": 490,
    "490,306": 491,
    "491,312": 492,
    "492,289": 493,
    "493,379": 494,
    "494,415": 495,
    "495,115": 496,
    "496,350": 497,
    "497,284": 498,
    "498,382": 499,
    "499,312": 500,
    "416,272": 501,
    "501,340": 502,
    "502,384": 503,
    "503,417": 504,
    "504,341": 505,
    "505,321": 506,
    "506,420": 507,
    "507,355": 508,
    "508,421": 509,
    "509,422": 510,
    "510,104": 511,
    "511,105": 512,
    "512,291": 513,
    "513,423": 514,
    "514,424": 515,
    "515,357": 516,
    "516,103": 517,
    "517,388": 518,
    "518,321": 519,
    "426,359": 520,
    "520,427": 521,
    "261,256": 522,
    "118,322": 523,
    "107,32": 524,
    "431,39": 525,
    "525,259": 526,
    "319,32": 527,
    "435,331": 528,
    "528,110": 529,
    "529,272": 530,
    "344,32": 531,
    "359,54": 532,
    "532,57": 533,
    "261,77": 534,
    "266,118": 535,
    "535,287": 536,
    "536,77": 537,
    "537,256": 538,
    "538,115": 539,
    "539,107": 540,
    "540,437": 541,
    "541,83": 542,
    "542,101": 543,
    "543,121": 544,
    "544,334": 545,
    "545,307": 546,
    "546,438": 547,
    "547,97": 548,
    "548,308": 549,
    "549,310": 550,
    "98,111": 551,
    "261,288": 552,
    "115,434": 553,
    "553,341": 554,
    "554,293": 555,
    "555,303": 556,
    "556,260": 557,
    "557,395": 558,
    "558,310": 559,
    "559,440": 560,
    "560,335": 561,
    "561,395": 562,
    "562,110": 563,
    "563,329": 564,
    "564,441": 565,
    "565,266": 566,
    "566,364": 567,
    "567,98": 568,
    "568,264": 569,
    "569,396": 570,
    "570,108": 571,
    "571,105": 572,
    "572,107": 573,
    "573,257": 574,
    "574,88": 575,
    "575,442": 576,
    "445,105": 577,
    "577,114": 578,
    "578,291": 579,
    "579,32": 580,
    "446,56": 581,
    "581,447": 582,
    "582,270": 583,
    "583,98": 584,
    "584,366": 585,
    "585,288": 586,
    "586,112": 587,
    "587,337": 588,
    "588,355": 589,
    "589,269": 590,
    "590,103": 591,
    "591,278": 592,
    "592,301": 593,
    "593,311": 594,
    "594,432": 595,
    "595,112": 596,
    "596,448": 597,
    "597,303": 598,
    "598,266": 599,
    "599,105": 600,
    "600,122": 601,
    "601,391": 602,
    "72,256": 603,
    "603,449": 604,
    "604,261": 605,
    "76,101": 606,
    "606,67": 607,
    "607,338": 608,
    "608,450": 609,
    "104,117": 610,
    "66,274": 611,
    "611,103": 612,
    "612,281": 613,
    "613,261": 614,
    "614,451": 615,
    "615,273": 616,
    "616,326": 617,
    "617,452": 618,
    "618,105": 619,
    "619,362": 620,
    "341,454": 621,
    "621,116": 622,
    "622,339": 623,
    "101,102": 624,
    "299,115": 625,
    "625,400": 626,
    "626,335": 627,
    "99,456": 628,
    "628,257": 629,
    "50,48": 630,
    "630,49": 631,
    "631,50": 632,
    "65,264": 633,
    "633,120": 634,
    "293,110": 635,
    "119,340": 636,
    "636,270": 637,
    "637,73": 638,
    "638,299": 639,
    "639,103": 640,
    "640,101": 641,
    "641,457": 642,
    "642,298": 643,
    "643,365": 644,
    "644,110": 645,
    "645,393": 646,
    "646,327": 647,
    "647,282": 648,
    "458,103": 649,
    "649,256": 650,
    "459,404": 651,
    "384,285": 652,
    "652,397": 653,
    "653,460": 654,
    "654,331": 655,
    "655,462": 656,
    "272,313": 657,
    "261,291": 658,
    "112,114": 659,
    "286,372": 660,
    "111,308": 661,
    "259,336": 662,
    "265,257": 663,
    "466,114": 664,
    "664,467": 665,
    "665,332": 666,
    "100,330": 667,
    "469,267": 668,
    "98,256": 669,
    "117,259": 670,
    "272,104": 671,
    "472,474": 672,
    "364,464": 673,
    "673,261": 674,
    "674,119": 675,
    "675,104": 676,
    "676,276": 677,
    "677,455": 678,
    "477,112": 679,
    "272,287": 680,
    "328,257": 681,
    "257,300": 682,
    "115,374": 683,
    "478,481": 684,
    "338,100": 685,
    "482,291": 686,
    "324,256": 687,
    "99,108": 688,
    "100,111": 689,
    "80,121": 690,
    "690,258": 691,
    "111,110": 692,
    "282,102": 693,
    "116,97": 694,
    "99,105": 695,
    "81,412": 696,
    "696,483": 697,
    "697,298": 698,
    "698,268": 699,
    "699,276": 700,
    "700,259": 701,
    "99,114": 702,
    "265,111": 703,
    "276,32": 704,
    "489,289": 705,
    "257,112": 706,
    "366,279": 707,
    "98,262": 708,
    "378,111": 709,
    "118,101": 710,
    "100,117": 711,
    "487,108": 712,
    "712,257": 713,
    "475,265": 714,
    "284,282": 715,
    "343,335": 716,
    "113,412": 717,
    "500,313": 718,
    "718,289": 719,
    "719,519": 720,
    "720,270": 721,
    "721,521": 722,
    "722,522": 723,
    "723,523": 724,
    "724,391": 725,
    "725,70": 726,
    "726,114": 727,
    "727,268": 728,
    "728,524": 729,
    "729,431": 730,
    "730,277": 731,
    "731,526": 732,
    "732,426": 733,
    "733,432": 734,
    "734,379": 735,
    "735,434": 736,
    "736,354": 737,
    "737,527": 738,
    "738,530": 739,
    "739,531": 740,
    "740,105": 741,
    "741,299": 742,
    "742,393": 743,
    "743,290": 744,
    "744,293": 745,
    "745,103": 746,
    "746,110": 747,
    "747,302": 748,
    "748,436": 749,
    "749,72": 750,
    "750,333": 751,
    "751,101": 752,
    "752,118": 753,
    "753,262": 754,
    "754,261": 755,
    "755,533": 756,
    "756,534": 757,
    "757,550": 758,
    "758,112": 759,
    "759,117": 760,
    "760,328": 761,
    "761,394": 762,
    "762,104": 763,
    "763,363": 764,
    "764,551": 765,
    "765,111": 766,
    "766,524": 767,
    "767,39": 768,
    "768,80": 769,
    "769,262": 770,
    "770,390": 771,
    "771,110": 772,
    "772,115": 773,
    "773,39": 774,
    "774,552": 775,
    "775,118": 776,
    "776,439": 777,
    "777,576": 778,
    "778,386": 779,
    "779,289": 780,
    "780,264": 781,
    "781,260": 782,
    "782,336": 783,
    "783,282": 784,
    "784,308": 785,
    "785,281": 786,
    "786,260": 787,
    "787,444": 788,
    "788,580": 789,
    "789,65": 790,
    "790,73": 791,
    "791,32": 792,
    "792,119": 793,
    "793,397": 794,
    "794,262": 795,
    "795,602": 796,
    "796,71": 797,
    "797,101": 798,
    "798,283": 799,
    "799,102": 800,
    "800,290": 801,
    "801,271": 802,
    "802,605": 803,
    "803,89": 804,
    "804,268": 805,
    "805,263": 806,
    "806,609": 807,
    "807,89": 808,
    "808,309": 809,
    "809,610": 810,
    "810,282": 811,
    "811,620": 812,
    "812,354": 813,
    "813,623": 814,
    "814,256": 815,
    "815,272": 816,
    "816,624": 817,
    "817,352": 818,
    "818,322": 819,
    "819,108": 820,
    "820,121": 821,
    "821,422": 822,
    "822,627": 823,
    "823,98": 824,
    "824,401": 825,
    "825,107": 826,
    "826,258": 827,
    "827,275": 828,
    "828,117": 829,
    "829,103": 830,
    "830,455": 831,
    "831,629": 832,
    "832,287": 833,
    "833,632": 834,
    "834,32": 835,
    "835,321": 836,
    "836,634": 837,
    "837,78": 838,
    "838,279": 839,
    "839,261": 840,
    "840,282": 841,
    "841,326": 842,
    "842,635": 843,
    "843,118": 844,
    "844,345": 845,
    "845,367": 846,
    "846,332": 847,
    "847,417": 848,
    "848,527": 849,
    "849,313": 850,
    "850,648": 851,
    "851,627": 852,
    "852,650": 853,
    "853,522": 854,
    "854,302": 855,
    "855,105": 856,
    "856,265": 857,
    "857,651": 858,
    "858,262": 859,
    "859,282": 860,
    "860,424": 861,
    "861,294": 862,
    "862,103": 863,
    "863,405": 864,
    "864,265": 865,
    "865,105": 866,
    "866,335": 867,
    "867,656": 868,
    "868,406": 869,
    "869,500": 870,
    "870,519": 871,
    "871,526": 872,
    "872,521": 873,
    "873,277": 874,
    "874,77": 875,
    "875,550": 876,
    "876,288": 877,
    "877,118": 878,
    "878,657": 879,
    "879,576": 880,
    "880,32": 881,
    "881,533": 882,
    "882,602": 883,
    "883,605": 884,
    "884,609": 885,
    "885,620": 886,
    "886,623": 887,
    "887,441": 888,
    "888,100": 889,
    "889,305": 890,
    "890,632": 891,
    "891,261": 892,
    "892,634": 893,
    "893,457": 894,
    "894,648": 895,
    "895,610": 896,
    "896,393": 897,
    "897,650": 898,
    "898,658": 899,
    "899,315": 900,
    "900,651": 901,
    "901,387": 902,
    "902,262": 903,
    "903,97": 904,
    "904,406": 905,
    "905,80": 906,
    "906,275": 907,
    "907,464": 908,
    "908,259": 909,
    "909,266": 910,
    "910,257": 911,
    "911,270": 912,
    "912,659": 913,
    "913,105": 914,
    "914,458": 915,
    "915,271": 916,
    "916,295": 917,
    "917,345": 918,
    "918,259": 919,
    "919,465": 920,
    "920,391": 921,
    "921,660": 922,
    "922,661": 923,
    "923,662": 924,
    "924,293": 925,
    "925,368": 926,
    "926,338": 927,
    "927,276": 928,
    "928,663": 929,
    "929,666": 930,
    "930,662": 931,
    "931,469": 932,
    "932,262": 933,
    "933,115": 934,
    "934,398": 935,
    "935,101": 936,
    "936,266": 937,
    "937,470": 938,
    "938,667": 939,
    "939,471": 940,
    "940,668": 941,
    "941,552": 942,
    "942,408": 943,
    "943,262": 944,
    "944,259": 945,
    "945,119": 946,
    "946,275": 947,
    "947,116": 948,
    "948,257": 949,
    "949,666": 950,
    "950,259": 951,
    "951,287": 952,
    "952,339": 953,
    "953,119": 954,
    "954,32": 955,
    "955,669": 956,
    "956,266": 957,
    "957,271": 958,
    "958,382": 959,
    "959,293": 960,
    "960,286": 961,
    "961,411": 962,
    "962,427": 963,
    "963,261": 964,
    "964,74": 965,
    "965,111": 966,
    "966,104": 967,
    "967,263": 968,
    "968,66": 969,
    "969,366": 970,
    "970,670": 971,
    "971,294": 972,
    "972,73": 973,
    "973,66": 974,
    "974,77": 975,
    "975,32": 976,
    "976,660": 977,
    "977,448": 978,
    "978,272": 979,
    "979,70": 980,
    "980,442": 981,
    "981,84": 982,
    "982,82": 983,
    "983,65": 984,
    "984,78": 985,
    "985,261": 986,
    "986,580": 987,
    "987,119": 988,
    "988,105": 989,
    "989,286": 990,
    "990,470": 991,
    "991,465": 992,
    "992,671": 993,
    "993,672": 994,
    "994,678": 995,
    "995,451": 996,
    "996,272": 997,
    "997,299": 998,
    "998,258": 999,
    "999,374": 1000,
    "1000,265": 1001,
    "1001,276": 1002,
    "1002,285": 1003,
    "1003,475": 1004,
    "1004,476": 1005,
    "1005,454": 1006,
    "1006,679": 1007,
    "1007,385": 1008,
    "1008,115": 1009,
    "1009,680": 1010,
    "1010,478": 1011,
    "1011,97": 1012,
    "1012,681": 1013,
    "1013,116": 1014,
    "1014,477": 1015,
    "1015,116": 1016,
    "1016,411": 1017,
    "1017,55": 1018,
    "1018,50": 1019,
    "1019,261": 1020,
    "1020,68": 1021,
    "1021,274": 1022,
    "1022,110": 1023,
    "1023,289": 1024,
    "1024,82": 1025,
    "1025,302": 1026,
    "1026,298": 1027,
    "1027,105": 1028,
    "1028,682": 1029,
    "1029,66": 1030,
    "1030,460": 1031,
    "1031,32": 1032,
    "1032,76": 1033,
    "1033,375": 1034,
    "1034,259": 1035,
    "1035,256": 1036,
    "1036,523": 1037,
    "1037,363": 1038,
    "1038,67": 1039,
    "1039,678": 1040,
    "1040,410": 1041,
    "1041,669": 1042,
    "1042,363": 1043,
    "1043,112": 1044,
    "1044,333": 1045,
    "1045,323": 1046,
    "1046,284": 1047,
    "1047,399": 1048,
    "1048,474": 1049,
    "1049,32": 1050,
    "1050,314": 1051,
    "1051,683": 1052,
    "1052,328": 1053,
    "1053,271": 1054,
    "1054,409": 1055,
    "1055,259": 1056,
    "1056,321": 1057,
    "1057,104": 1058,
    "1058,672": 1059,
    "1059,32": 1060,
    "1060,684": 1061,
    "1061,121": 1062,
    "1062,277": 1063,
    "1063,67": 1064,
    "1064,32": 1065,
    "1065,357": 1066,
    "1066,629": 1067,
    "1067,445": 1068,
    "1068,111": 1069,
    "1069,685": 1070,
    "1070,355": 1071,
    "1071,284": 1072,
    "1072,404": 1073,
    "1073,661": 1074,
    "1074,265": 1075,
    "1075,273": 1076,
    "1076,686": 1077,
    "1077,374": 1078,
    "1078,687": 1079,
    "1079,688": 1080,
    "1080,117": 1081,
    "1081,100": 1082,
    "1082,273": 1083,
    "1083,85": 1084,
    "1084,110": 1085,
    "1085,105": 1086,
    "1086,120": 1087,
    "1087,32": 1088,
    "1088,294": 1089,
    "1089,87": 1090,
    "1090,256": 1091,
    "1091,100": 1092,
    "1092,333": 1093,
    "1093,115": 1094,
    "1094,411": 1095,
    "1095,57": 1096,
    "1096,49": 1097,
    "1097,261": 1098,
    "1098,71": 1099,
    "1099,117": 1100,
    "1100,105": 1101,
    "1101,689": 1102,
    "1102,32": 1103,
    "1103,118": 1104,
    "1104,388": 1105,
    "1105,392": 1106,
    "1106,115": 1107,
    "1107,349": 1108,
    "1108,290": 1109,
    "1109,264": 1110,
    "1110,314": 1111,
    "1111,272": 1112,
    "1112,691": 1113,
    "1113,692": 1114,
    "1114,261": 1115,
    "1115,530": 1116,
    "1116,321": 1117,
    "1117,693": 1118,
    "1118,111": 1119,
    "1119,99": 1120,
    "1120,670": 1121,
    "1121,340": 1122,
    "1122,293": 1123,
    "1123,100": 1124,
    "1124,257": 1125,
    "1125,684": 1126,
    "1126,437": 1127,
    "1127,99": 1128,
    "1128,264": 1129,
    "1129,388": 1130,
    "1130,482": 1131,
    "1131,110": 1132,
    "1132,694": 1133,
    "1133,120": 1134,
    "1134,356": 1135,
    "1135,111": 1136,
    "1136,667": 1137,
    "1137,261": 1138,
    "1138,691": 1139,
    "1139,340": 1140,
    "1140,289": 1141,
    "1141,270": 1142,
    "1142,689": 1143,
    "1143,109": 1144,
    "1144,256": 1145,
    "1145,268": 1146,
    "1146,310": 1147,
    "1147,371": 1148,
    "1148,257": 1149,
    "1149,531": 1150,
    "1150,382": 1151,
    "1151,421": 1152,
    "1152,261": 1153,
    "1153,656": 1154,
    "1154,450": 1155,
    "1155,100": 1156,
    "1156,265": 1157,
    "1157,379": 1158,
    "1158,695": 1159,
    "1159,462": 1160,
    "1160,406": 1161,
    "1161,701": 1162,
    "1162,289": 1163,
    "1163,693": 1164,
    "1164,685": 1165,
    "1165,456": 1166,
    "1166,322": 1167,
    "1167,285": 1168,
    "1168,258": 1169,
    "1169,101": 1170,
    "1170,423": 1171,
    "1171,287": 1172,
    "1172,485": 1173,
    "1173,259": 1174,
    "1174,313": 1175,
    "1175,435": 1176,
    "1176,702": 1177,
    "1177,105": 1178,
    "1178,357": 1179,
    "1179,259": 1180,
    "1180,270": 1181,
    "1181,485": 1182,
    "1182,285": 1183,
    "1183,288": 1184,
    "1184,308": 1185,
    "1185,116": 1186,
    "1186,105": 1187,
    "1187,101": 1188,
    "1188,471": 1189,
    "1189,110": 1190,
    "1190,265": 1191,
    "1191,307": 1192,
    "1192,682": 1193,
    "1193,270": 1194,
    "1194,115": 1195,
    "1195,99": 1196,
    "1196,269": 1197,
    "1197,257": 1198,
    "1198,284": 1199
  },
  "vocab": {
    "0": "\u0000",
    "1": "\u0001",
    "2": "\u0002",
    "3": "\u0003",
    "4": "\u0004",
    "5": "\u0005",
    "6": "\u0006",
    "7": "\u0007",
    "8": "\b",
    "9": "\t",
    "10": "\n",
    "11": "\u000b",
    "12": "\f",
    "13": "\r",
    "14": "\u000e",
    "15": "\u000f",
    "16": "\u0010",
    "17": "\u0011",
    "18": "\u0012",
    "19": "\u0013",
    "20": "\u0014",
    "21": "\u0015",
    "22": "\u0016",
    "23": "\u0017",
    "24": "\u0018",
    "25": "\u0019",
    "26": "\u001a",
    "27": "\u001b",
    "28": "\u001c",
    "29": "\u001d",
    "30": "\u001e",
    "31": "\u001f",
    "32": " ",
    "33": "!",
    "34": "\"",
    "35": "#",
    "36": "$",
    "37": "%",
    "38": "&",
    "39": "'",
    "40": "(",
    "41": ")",
    "42": "*",
    "43": "+",
    "44": ",",
    "45": "-",
    "46": ".",
    "47": "/",
    "48": "0",
    "49": "1",
    "50": "2",
    "51": "3",
    "52": "4",
    "53": "5",
    "54": "6",
    "55": "7",
    "56": "8",
    "57": "9",
    "58": ":",
    "59": ";",
    "60": "<",
    "61": "=",
    "62": ">",
    "63": "?",
    "64": "@",
    "65": "A",
    "66": "B",
    "67": "C",
    "68": "D",
    "69": "E",
    "70": "F",
    "71": "G",
    "72": "H",
    "73": "I",
    "74": "J",
    "75": "K",
    "76": "L",
    "77": "M",
    "78": "N",
    "79": "O",
    "80": "P",
    "81": "Q",
    "82": "R",
    "83": "S",
    "84": "T",
    "85": "U",
    "86": "V",
    "87": "W",
    "88": "X",
    "89": "Y",
    "90": "Z",
    "91": "[",
    "92": "\\",
    "93": "]",
    "94": "^",
    "95": "_",
    "96": "`",
    "97": "a",
    "98": "b",
    "99": "c",
    "100": "d",
    "101": "e",
    "102": "f",
    "103": "g",
    "104": "h",
    "105": "i",
    "106": "j",
    "107": "k",
    "108": "l",
    "109": "m",
    "110": "n",
    "111": "o",
    "112": "p",
    "113": "q",
    "114": "r",
    "115": "s",
    "116": "t",
    "117": "u",
    "118": "v",
    "119": "w",
    "120": "x",
    "121": "y",
    "122": "z",
    "123": "{",
    "124": "|",
    "125": "}",
    "126": "~",
    "127": "\u007f",
    "128": "\u0080",
    "129": "\u0081",
    "130": "\u0082",
    "131": "\u0083",
    "132": "\u0084",
    "133": "\u0085",
    "134": "\u0086",
    "135": "\u0087",
    "136": "\u0088",
    "137": "\u0089",
    "138": "\u008a",
    "139": "\u008b",
    "140": "\u008c",
    "141": "\u008d",
    "142": "\u008e",
    "143": "\u008f",
    "144": "\u0090",
    "145": "\u0091",
    "146": "\u0092",
    "147": "\u0093",
    "148": "\u0094",
    "149": "\u0095",
    "150": "\u0096",
    "151": "\u0097",
    "152": "\u0098",
    "153": "\u0099",
    "154": "\u009a",
    "155": "\u009b",
    "156": "\u009c",
    "157": "\u009d",
    "158": "\u009e",
    "159": "\u009f",
    "160": "\u00a0",
    "161": "\u00a1",
    "162": "\u00a2",
    "163": "\u00a3",
    "164": "\u00a4",
    "165": "\u00a5",
    "166": "\u00a6",
    "167": "\u00a7",
    "168": "\u00a8",
    "169": "\u00a9",
    "170": "\u00aa",
    "171": "\u00ab",
    "172": "\u00ac",
    "173": "\u00ad",
    "174": "\u00ae",
    "175": "\u00af",
    "176": "\u00b0",
    "177": "\u00b1",
    "178": "\u00b2",
    "179": "\u00b3",
    "180": "\u00b4",
    "181": "\u00b5",
    "182": "\u00b6",
    "183": "\u00b7",
    "184": "\u00b8",
    "185": "\u00b9",
    "186": "\u00ba",
    "187": "\u00bb",
    "188": "\u00bc",
    "189": "\u00bd",
    "190": "\u00be",
    "191": "\u00bf",
    "192": "\u00c0",
    "193": "\u00c1",
    "194": "\u00c2",
    "195": "\u00c3",
    "196": "\u00c4",
    "197": "\u00c5",
    "198": "\u00c6",
    "199": "\u00c7",
    "200": "\u00c8",
    "201": "\u00c9",
    "202": "\u00ca",
    "203": "\u00cb",
    "204": "\u00cc",
    "205": "\u00cd",
    "206": "\u00ce",
    "207": "\u00cf",
    "208": "\u00d0",
    "209": "\u00d1",
    "210": "\u00d2",
    "211": "\u00d3",
    "212": "\u00d4",
    "213": "\u00d5",
    "214": "\u00d6",
    "215": "\u00d7",
    "216": "\u00d8",
    "217": "\u00d9",
    "218": "\u00da",
    "219": "\u00db",
    "220": "\u00dc",
    "221": "\u00dd",
    "222": "\u00de",
    "223": "\u00df",
    "224": "\u00e0",
    "225": "\u00e1",
    "226": "\u00e2",
    "227": "\u00e3",
    "228": "\u00e4",
    "229": "\u00e5",
    "230": "\u00e6",
    "231": "\u00e7",
    "232": "\u00e8",
    "233": "\u00e9",
    "234": "\u00ea",
    "235": "\u00eb",
    "236": "\u00ec",
    "237": "\u00ed",
    "238": "\u00ee",
    "239": "\u00ef",
    "240": "\u00f0",
    "241": "\u00f1",
    "242": "\u00f2",
    "243": "\u00f3",
    "244": "\u00f4",
    "245": "\u00f5",
    "246": "\u00f6",
    "247": "\u00f7",
    "248": "\u00f8",
    "249": "\u00f9",
    "250": "\u00fa",
    "251": "\u00fb",
    "252": "\u00fc",
    "253": "\u00fd",
    "254": "\u00fe",
    "255": "\u00ff",
    "256": "in",
    "257": "e ",
    "258": "th",
    "259": "s ",
    "260": "d ",
    "261": ", ",
    "262": "er",
    "263": "n ",
    "264": "le",
    "265": "at",
    "266": "ar",
    "267": "ing",
    "268": "an",
    "269": "al",
    "270": "the ",
    "271": "y ",
    "272": "ed ",
    "273": "ing ",
    "274": "en",
    "275": "ro",
    "276": "ic",
    "277": ". ",
    "278": "or",
    "279": "et",
    "280": "ep",
    "281": "io",
    "282": "a ",
    "283": "of",
    "284": "of ",
    "285": "al ",
    "286": "de",
    "287": "in ",
    "288": "pro",
    "289": "is ",
    "290": "re",
    "291": "st",
    "292": "19",
    "293": "co",
    "294": "and ",
    "295": "to",
    "296": "lear",
    "297": "learn",
    "298": "ch",
    "299": "ma",
    "300": "at ",
    "301": "ith",
    "302": "it",
    "303": "ul",
    "304": ". I",
    "305": ". In ",
    "306": "ep ",
    "307": "ur",
    "308": "per",
    "309": "os",
    "310": "t ",
    "311": "m ",
    "312": "learning ",
    "313": "that ",
    "314": "as",
    "315": "art",
    "316": "al n",
    "317": "etw",
    "318": "etwor",
    "319": "etwork",
    "320": "with",
    "321": "with ",
    "322": "ent",
    "323": "er ",
    "324": "s, ",
    "325": "el",
    "326": "deep ",
    "327": "by ",
    "328": "bl",
    "329": "-l",
    "330": "ay",
    "331": "ig",
    "332": "ion",
    "333": "ow",
    "334": "mo",
    "335": "ve ",
    "336": "to ",
    "337": "ag",
    "338": "un",
    "339": "ra",
    "340": "on ",
    "341": "etworks ",
    "342": "ion ",
    "343": "wa",
    "344": "for",
    "345": "ol",
    "346": "ck",
    "347": "mul",
    "348": "lan",
    "349": "um ",
    "350": "et ",
    "351": "fic",
    "352": "fici",
    "353": "eur",
    "354": "eural n",
    "355": "ation ",
    "356": ". T",
    "357": "be",
    "358": "tro",
    "359": "in 19",
    "360": "-lay",
    "361": "-layer ",
    "362": "-layer n",
    "363": "ed the ",
    "364": " pro",
    "365": "alle",
    "366": "ack",
    "367": "ut",
    "368": "mm",
    "369": "lang",
    "370": "langu",
    "371": "languag",
    "372": "vel",
    "373": "ct",
    "374": "em",
    "375": "ab",
    "376": "uan",
    "377": "uant",
    "378": "ph",
    "379": "a s",
    "380": "mach",
    "381": "machin",
    "382": "machine ",
    "383": "arti",
    "384": "artifici",
    "385": "res",
    "386": ". Th",
    "387": "deep learning ",
    "388": "an ",
    "389": "cep",
    "390": "ceptro",
    "391": "ed by ",
    "392": "Ros",
    "393": "ge ",
    "394": "is",
    "395": "no",
    "396": "ms ",
    "397": "int",
    "398": ". In the ",
    "399": "low",
    "400": "si",
    "401": "rea",
    "402": "mod",
    "403": "moder",
    "404": "modern ",
    "405": "ener",
    "406": ".\n",
    "407": "gra",
    "408": "gramm",
    "409": "language",
    "410": "com",
    "411": ". In 19",
    "412": "uantum ",
    "413": "sic",
    "414": "pos",
    "415": "ub",
    "416": "bas",
    "417": "al neural n",
    "418": "rep",
    "419": "repres",
    "420": "represent",
    "421": "learning",
    "422": ". The ",
    "423": "ory ",
    "424": "of deep learning ",
    "425": "perceptro",
    "426": "perceptron ",
    "427": "57",
    "428": "Rosen",
    "429": "Rosenbl",
    "430": "Rosenblat",
    "431": "Rosenblatt",
    "432": "was ",
    "433": "ingle",
    "434": "ingle-layer n",
    "435": "des",
    "436": "ion. ",
    "437": "y and ",
    "438": " P",
    "439": "ing that ",
    "440": "sol",
    "441": "ine",
    "442": "OR",
    "443": "calle",
    "444": "called ",
    "445": "the f",
    "446": ". In the 19",
    "447": "0s, ",
    "448": "op",
    "449": "ton",
    "450": ", and ",
    "451": "allow",
    "452": "mult",
    "453": "to b",
    "454": "to be ",
    "455": "h ",
    "456": "am",
    "457": "Net ",
    "458": "mar",
    "459": "ing the ",
    "460": "ell",
    "461": "enc",
    "462": "ence",
    "463": "gramming ",
    "464": "gramming language",
    "465": "us",
    "466": "inst",
    "467": "uct",
    "468": "comp",
    "469": "comput",
    "470": "ly ",
    "471": "s of ",
    "472": "igh",
    "473": "-le",
    "474": "-level",
    "475": "formul",
    "476": "as ",
    "477": "ex",
    "478": "read",
    "479": "abi",
    "480": "abil",
    "481": "abilit",
    "482": "sy",
    "483": "me",
    "484": "phy",
    "485": "physic",
    "486": "part",
    "487": "partic",
    "488": "energ",
    "489": "energy ",
    "490": "De",
    "491": "Deep ",
    "492": "Deep learning ",
    "493": "Deep learning is ",
    "494": "Deep learning is a s",
    "495": "Deep learning is a sub",
    "496": "Deep learning is a subs",
    "497": "Deep learning is a subset ",
    "498": "Deep learning is a subset of ",
    "499": "Deep learning is a subset of machine ",
    "500": "Deep learning is a subset of machine learning ",
    "501": "based ",
    "502": "based on ",
    "503": "based on artifici",
    "504": "based on artificial neural n",
    "505": "based on artificial neural networks ",
    "506": "based on artificial neural networks with ",
    "507": "based on artificial neural networks with represent",
    "508": "based on artificial neural networks with representation ",
    "509": "based on artificial neural networks with representation learning",
    "510": "based on artificial neural networks with representation learning. The ",
    "511": "based on artificial neural networks with representation learning. The h",
    "512": "based on artificial neural networks with representation learning. The hi",
    "513": "based on artificial neural networks with representation learning. The hist",
    "514": "based on artificial neural networks with representation learning. The history ",
    "515": "based on artificial neural networks with representation learning. The history of deep learning ",
    "516": "based on artificial neural networks with representation learning. The history of deep learning be",
    "517": "based on artificial neural networks with representation learning. The history of deep learning beg",
    "518": "based on artificial neural networks with representation learning. The history of deep learning began ",
    "519": "based on artificial neural networks with representation learning. The history of deep learning began with ",
    "520": "perceptron in 19",
    "521": "perceptron in 1957",
    "522": ", in",
    "523": "vent",
    "524": "k ",
    "525": "Rosenblatt'",
    "526": "Rosenblatt's ",
    "527": "etwork ",
    "528": "desig",
    "529": "design",
    "530": "designed ",
    "531": "for ",
    "532": "in 196",
    "533": "in 1969",
    "534": ", M",
    "535": "arv",
    "536": "arvin ",
    "537": "arvin M",
    "538": "arvin Min",
    "539": "arvin Mins",
    "540": "arvin Minsk",
    "541": "arvin Minsky and ",
    "542": "arvin Minsky and S",
    "543": "arvin Minsky and Se",
    "544": "arvin Minsky and Sey",
    "545": "arvin Minsky and Seymo",
    "546": "arvin Minsky and Seymour",
    "547": "arvin Minsky and Seymour P",
    "548": "arvin Minsky and Seymour Pa",
    "549": "arvin Minsky and Seymour Paper",
    "550": "arvin Minsky and Seymour Papert ",
    "551": "bo",
    "552": ", pro",
    "553": "single-layer n",
    "554": "single-layer networks ",
    "555": "single-layer networks co",
    "556": "single-layer networks coul",
    "557": "single-layer networks could ",
    "558": "single-layer networks could no",
    "559": "single-layer networks could not ",
    "560": "single-layer networks could not sol",
    "561": "single-layer networks could not solve ",
    "562": "single-layer networks could not solve no",
    "563": "single-layer networks could not solve non",
    "564": "single-layer networks could not solve non-l",
    "565": "single-layer networks could not solve non-line",
    "566": "single-layer networks could not solve non-linear",
    "567": "single-layer networks could not solve non-linear pro",
    "568": "single-layer networks could not solve non-linear prob",
    "569": "single-layer networks could not solve non-linear proble",
    "570": "single-layer networks could not solve non-linear problems ",
    "571": "single-layer networks could not solve non-linear problems l",
    "572": "single-layer networks could not solve non-linear problems li",
    "573": "single-layer networks could not solve non-linear problems lik",
    "574": "single-layer networks could not solve non-linear problems like ",
    "575": "single-layer networks could not solve non-linear problems like X",
    "576": "single-layer networks could not solve non-linear problems like XOR",
    "577": "the fi",
    "578": "the fir",
    "579": "the first",
    "580": "the first ",
    "581": ". In the 198",
    "582": ". In the 1980s, ",
    "583": ". In the 1980s, the ",
    "584": ". In the 1980s, the b",
    "585": ". In the 1980s, the back",
    "586": ". In the 1980s, the backpro",
    "587": ". In the 1980s, the backprop",
    "588": ". In the 1980s, the backpropag",
    "589": ". In the 1980s, the backpropagation ",
    "590": ". In the 1980s, the backpropagation al",
    "591": ". In the 1980s, the backpropagation alg",
    "592": ". In the 1980s, the backpropagation algor",
    "593": ". In the 1980s, the backpropagation algorith",
    "594": ". In the 1980s, the backpropagation algorithm ",
    "595": ". In the 1980s, the backpropagation algorithm was ",
    "596": ". In the 1980s, the backpropagation algorithm was p",
    "597": ". In the 1980s, the backpropagation algorithm was pop",
    "598": ". In the 1980s, the backpropagation algorithm was popul",
    "599": ". In the 1980s, the backpropagation algorithm was popular",
    "600": ". In the 1980s, the backpropagation algorithm was populari",
    "601": ". In the 1980s, the backpropagation algorithm was populariz",
    "602": ". In the 1980s, the backpropagation algorithm was popularized by ",
    "603": "Hin",
    "604": "Hinton",
    "605": "Hinton, ",
    "606": "Le",
    "607": "LeC",
    "608": "LeCun",
    "609": "LeCun, and ",
    "610": "hu",
    "611": "Ben",
    "612": "Beng",
    "613": "Bengio",
    "614": "Bengio, ",
    "615": "Bengio, allow",
    "616": "Bengio, allowing ",
    "617": "Bengio, allowing deep ",
    "618": "Bengio, allowing deep mult",
    "619": "Bengio, allowing deep multi",
    "620": "Bengio, allowing deep multi-layer n",
    "621": "etworks to be ",
    "622": "etworks to be t",
    "623": "etworks to be tra",
    "624": "ef",
    "625": "mas",
    "626": "massi",
    "627": "massive ",
    "628": "cam",
    "629": "came ",
    "630": "20",
    "631": "201",
    "632": "2012",
    "633": "Ale",
    "634": "Alex",
    "635": "con",
    "636": "won ",
    "637": "won the ",
    "638": "won the I",
    "639": "won the Ima",
    "640": "won the Imag",
    "641": "won the Image",
    "642": "won the ImageNet ",
    "643": "won the ImageNet ch",
    "644": "won the ImageNet challe",
    "645": "won the ImageNet challen",
    "646": "won the ImageNet challenge ",
    "647": "won the ImageNet challenge by ",
    "648": "won the ImageNet challenge by a ",
    "649": "marg",
    "650": "margin",
    "651": "ing the modern ",
    "652": "artificial ",
    "653": "artificial int",
    "654": "artificial intell",
    "655": "artificial intellig",
    "656": "artificial intelligence",
    "657": "ed that ",
    "658": ", st",
    "659": "pr",
    "660": "devel",
    "661": "oper",
    "662": "s to ",
    "663": "ate ",
    "664": "instr",
    "665": "instruct",
    "666": "instruction",
    "667": "day",
    "668": "computing",
    "669": "bin",
    "670": "us ",
    "671": "ed h",
    "672": "igh-level",
    "673": " programming language",
    "674": " programming language, ",
    "675": " programming language, w",
    "676": " programming language, wh",
    "677": " programming language, whic",
    "678": " programming language, which ",
    "679": "exp",
    "680": "ed in ",
    "681": "ble ",
    "682": "e at ",
    "683": "sem",
    "684": "readabilit",
    "685": "und",
    "686": "syst",
    "687": "s, in",
    "688": "cl",
    "689": "do",
    "690": "Py",
    "691": "Pyth",
    "692": "on",
    "693": "a f",
    "694": "ta",
    "695": "ci",
    "696": "Quantum ",
    "697": "Quantum me",
    "698": "Quantum mech",
    "699": "Quantum mechan",
    "700": "Quantum mechanic",
    "701": "Quantum mechanics ",
    "702": "cr",
    "703": "ato",
    "704": "ic ",
    "705": "energy is ",
    "706": "e p",
    "707": "acket",
    "708": "ber",
    "709": "pho",
    "710": "ve",
    "711": "du",
    "712": "particl",
    "713": "particle ",
    "714": "formulat",
    "715": "of a ",
    "716": "wave ",
    "717": "quantum ",
    "718": "Deep learning is a subset of machine learning that ",
    "719": "Deep learning is a subset of machine learning that is ",
    "720": "Deep learning is a subset of machine learning that is based on artificial neural networks with representation learning. The history of deep learning began with ",
    "721": "Deep learning is a subset of machine learning that is based on artificial neural networks with representation learning. The history of deep learning began with the ",
    "722": "Deep learning is a subset of machine learning that is based on artificial neural networks with representation learning. The history of deep learning began with the perceptron in 1957",
    "723": "Deep learning is a subset of machine learning that is based on artificial neural networks with representation learning. The history of deep learning began with the perceptron in 1957, in",
    "724": "Deep learning is a subset of machine learning that is based on artificial neural networks with representation learning. The history of deep learning began with the perceptron in 1957, invent",
    "725": "Deep learning is a subset of machine learning that is based on artificial neural networks with representation learning. The history of deep learning began with the perceptron in 1957, invented by ",
    "726": "Deep learning is a subset of machine learning that is based on artificial neural networks with representation learning. The history of deep learning began with the perceptron in 1957, invented by F",
    "727": "Deep learning is a subset of machine learning that is based on artificial neural networks with representation learning. The history of deep learning began with the perceptron in 1957, invented by Fr",
    "728": "Deep learning is a subset of machine learning that is based on artificial neural networks with representation learning. The history of deep learning began with the perceptron in 1957, invented by Fran",
    "729": "Deep learning is a subset of machine learning that is based on artificial neural networks with representation learning. The history of deep learning began with the perceptron in 1957, invented by Frank ",
    "730": "Deep learning is a subset of machine learning that is based on artificial neural networks with representation learning. The history of deep learning began with the perceptron in 1957, invented by Frank Rosenblatt",
    "731": "Deep learning is a subset of machine learning that is based on artificial neural networks with representation learning. The history of deep learning began with the perceptron in 1957, invented by Frank Rosenblatt. ",
    "732": "Deep learning is a subset of machine learning that is based on artificial neural networks with representation learning. The history of deep learning began with the perceptron in 1957, invented by Frank Rosenblatt. Rosenblatt's ",
    "733": "Deep learning is a subset of machine learning that is based on artificial neural networks with representation learning. The history of deep learning began with the perceptron in 1957, invented by Frank Rosenblatt. Rosenblatt's perceptron ",
    "734": "Deep learning is a subset of machine learning that is based on artificial neural networks with representation learning. The history of deep learning began with the perceptron in 1957, invented by Frank Rosenblatt. Rosenblatt's perceptron was ",
    "735": "Deep learning is a subset of machine learning that is based on artificial neural networks with representation learning. The history of deep learning began with the perceptron in 1957, invented by Frank Rosenblatt. Rosenblatt's perceptron was a s",
    "736": "Deep learning is a subset of machine learning that is based on artificial neural networks with representation learning. The history of deep learning began with the perceptron in 1957, invented by Frank Rosenblatt. Rosenblatt's perceptron was a single-layer n",
    "737": "Deep learning is a subset of machine learning that is based on artificial neural networks with representation learning. The history of deep learning began with the perceptron in 1957, invented by Frank Rosenblatt. Rosenblatt's perceptron was a single-layer neural n",
    "738": "Deep learning is a subset of machine learning that is based on artificial neural networks with representation learning. The history of deep learning began with the perceptron in 1957, invented by Frank Rosenblatt. Rosenblatt's perceptron was a single-layer neural network ",
    "739": "Deep learning is a subset of machine learning that is based on artificial neural networks with representation learning. The history of deep learning began with the perceptron in 1957, invented by Frank Rosenblatt. Rosenblatt's perceptron was a single-layer neural network designed ",
    "740": "Deep learning is a subset of machine learning that is based on artificial neural networks with representation learning. The history of deep learning began with the perceptron in 1957, invented by Frank Rosenblatt. Rosenblatt's perceptron was a single-layer neural network designed for ",
    "741": "Deep learning is a subset of machine learning that is based on artificial neural networks with representation learning. The history of deep learning began with the perceptron in 1957, invented by Frank Rosenblatt. Rosenblatt's perceptron was a single-layer neural network designed for i",
    "742": "Deep learning is a subset of machine learning that is based on artificial neural networks with representation learning. The history of deep learning began with the perceptron in 1957, invented by Frank Rosenblatt. Rosenblatt's perceptron was a single-layer neural network designed for ima",
    "743": "Deep learning is a subset of machine learning that is based on artificial neural networks with representation learning. The history of deep learning began with the perceptron in 1957, invented by Frank Rosenblatt. Rosenblatt's perceptron was a single-layer neural network designed for image ",
    "744": "Deep learning is a subset of machine learning that is based on artificial neural networks with representation learning. The history of deep learning began with the perceptron in 1957, invented by Frank Rosenblatt. Rosenblatt's perceptron was a single-layer neural network designed for image re",
    "745": "Deep learning is a subset of machine learning that is based on artificial neural networks with representation learning. The history of deep learning began with the perceptron in 1957, invented by Frank Rosenblatt. Rosenblatt's perceptron was a single-layer neural network designed for image reco",
    "746": "Deep learning is a subset of machine learning that is based on artificial neural networks with representation learning. The history of deep learning began with the perceptron in 1957, invented by Frank Rosenblatt. Rosenblatt's perceptron was a single-layer neural network designed for image recog",
    "747": "Deep learning is a subset of machine learning that is based on artificial neural networks with representation learning. The history of deep learning began with the perceptron in 1957, invented by Frank Rosenblatt. Rosenblatt's perceptron was a single-layer neural network designed for image recogn",
    "748": "Deep learning is a subset of machine learning that is based on artificial neural networks with representation learning. The history of deep learning began with the perceptron in 1957, invented by Frank Rosenblatt. Rosenblatt's perceptron was a single-layer neural network designed for image recognit",
    "749": "Deep learning is a subset of machine learning that is based on artificial neural networks with representation learning. The history of deep learning began with the perceptron in 1957, invented by Frank Rosenblatt. Rosenblatt's perceptron was a single-layer neural network designed for image recognition. ",
    "750": "Deep learning is a subset of machine learning that is based on artificial neural networks with representation learning. The history of deep learning began with the perceptron in 1957, invented by Frank Rosenblatt. Rosenblatt's perceptron was a single-layer neural network designed for image recognition. H",
    "751": "Deep learning is a subset of machine learning that is based on artificial neural networks with representation learning. The history of deep learning began with the perceptron in 1957, invented by Frank Rosenblatt. Rosenblatt's perceptron was a single-layer neural network designed for image recognition. How",
    "752": "Deep learning is a subset of machine learning that is based on artificial neural networks with representation learning. The history of deep learning began with the perceptron in 1957, invented by Frank Rosenblatt. Rosenblatt's perceptron was a single-layer neural network designed for image recognition. Howe",
    "753": "Deep learning is a subset of machine learning that is based on artificial neural networks with representation learning. The history of deep learning began with the perceptron in 1957, invented by Frank Rosenblatt. Rosenblatt's perceptron was a single-layer neural network designed for image recognition. Howev",
    "754": "Deep learning is a subset of machine learning that is based on artificial neural networks with representation learning. The history of deep learning began with the perceptron in 1957, invented by Frank Rosenblatt. Rosenblatt's perceptron was a single-layer neural network designed for image recognition. However",
    "755": "Deep learning is a subset of machine learning that is based on artificial neural networks with representation learning. The history of deep learning began with the perceptron in 1957, invented by Frank Rosenblatt. Rosenblatt's perceptron was a single-layer neural network designed for image recognition. However, ",
    "756": "Deep learning is a subset of machine learning that is based on artificial neural networks with representation learning. The history of deep learning began with the perceptron in 1957, invented by Frank Rosenblatt. Rosenblatt's perceptron was a single-layer neural network designed for image recognition. However, in 1969",
    "757": "Deep learning is a subset of machine learning that is based on artificial neural networks with representation learning. The history of deep learning began with the perceptron in 1957, invented by Frank Rosenblatt. Rosenblatt's perceptron was a single-layer neural network designed for image recognition. However, in 1969, M",
    "758": "Deep learning is a subset of machine learning that is based on artificial neural networks with representation learning. The history of deep learning began with the perceptron in 1957, invented by Frank Rosenblatt. Rosenblatt's perceptron was a single-layer neural network designed for image recognition. However, in 1969, Marvin Minsky and Seymour Papert ",
    "759": "Deep learning is a subset of machine learning that is based on artificial neural networks with representation learning. The history of deep learning began with the perceptron in 1957, invented by Frank Rosenblatt. Rosenblatt's perceptron was a single-layer neural network designed for image recognition. However, in 1969, Marvin Minsky and Seymour Papert p",
    "760": "Deep learning is a subset of machine learning that is based on artificial neural networks with representation learning. The history of deep learning began with the perceptron in 1957, invented by Frank Rosenblatt. Rosenblatt's perceptron was a single-layer neural network designed for image recognition. However, in 1969, Marvin Minsky and Seymour Papert pu",
    "761": "Deep learning is a subset of machine learning that is based on artificial neural networks with representation learning. The history of deep learning began with the perceptron in 1957, invented by Frank Rosenblatt. Rosenblatt's perceptron was a single-layer neural network designed for image recognition. However, in 1969, Marvin Minsky and Seymour Papert publ",
    "762": "Deep learning is a subset of machine learning that is based on artificial neural networks with representation learning. The history of deep learning began with the perceptron in 1957, invented by Frank Rosenblatt. Rosenblatt's perceptron was a single-layer neural network designed for image recognition. However, in 1969, Marvin Minsky and Seymour Papert publis",
    "763": "Deep learning is a subset of machine learning that is based on artificial neural networks with representation learning. The history of deep learning began with the perceptron in 1957, invented by Frank Rosenblatt. Rosenblatt's perceptron was a single-layer neural network designed for image recognition. However, in 1969, Marvin Minsky and Seymour Papert publish",
    "764": "Deep learning is a subset of machine learning that is based on artificial neural networks with representation learning. The history of deep learning began with the perceptron in 1957, invented by Frank Rosenblatt. Rosenblatt's perceptron was a single-layer neural network designed for image recognition. However, in 1969, Marvin Minsky and Seymour Papert published the ",
    "765": "Deep learning is a subset of machine learning that is based on artificial neural networks with representation learning. The history of deep learning began with the perceptron in 1957, invented by Frank Rosenblatt. Rosenblatt's perceptron was a single-layer neural network designed for image recognition. However, in 1969, Marvin Minsky and Seymour Papert published the bo",
    "766": "Deep learning is a subset of machine learning that is based on artificial neural networks with representation learning. The history of deep learning began with the perceptron in 1957, invented by Frank Rosenblatt. Rosenblatt's perceptron was a single-layer neural network designed for image recognition. However, in 1969, Marvin Minsky and Seymour Papert published the boo",
    "767": "Deep learning is a subset of machine learning that is based on artificial neural networks with representation learning. The history of deep learning began with the perceptron in 1957, invented by Frank Rosenblatt. Rosenblatt's perceptron was a single-layer neural network designed for image recognition. However, in 1969, Marvin Minsky and Seymour Papert published the book ",
    "768": "Deep learning is a subset of machine learning that is based on artificial neural networks with representation learning. The history of deep learning began with the perceptron in 1957, invented by Frank Rosenblatt. Rosenblatt's perceptron was a single-layer neural network designed for image recognition. However, in 1969, Marvin Minsky and Seymour Papert published the book '",
    "769": "Deep learning is a subset of machine learning that is based on artificial neural networks with representation learning. The history of deep learning began with the perceptron in 1957, invented by Frank Rosenblatt. Rosenblatt's perceptron was a single-layer neural network designed for image recognition. However, in 1969, Marvin Minsky and Seymour Papert published the book 'P",
    "770": "Deep learning is a subset of machine learning that is based on artificial neural networks with representation learning. The history of deep learning began with the perceptron in 1957, invented by Frank Rosenblatt. Rosenblatt's perceptron was a single-layer neural network designed for image recognition. However, in 1969, Marvin Minsky and Seymour Papert published the book 'Per",
    "771": "Deep learning is a subset of machine learning that is based on artificial neural networks with representation learning. The history of deep learning began with the perceptron in 1957, invented by Frank Rosenblatt. Rosenblatt's perceptron was a single-layer neural network designed for image recognition. However, in 1969, Marvin Minsky and Seymour Papert published the book 'Perceptro",
    "772": "Deep learning is a subset of machine learning that is based on artificial neural networks with representation learning. The history of deep learning began with the perceptron in 1957, invented by Frank Rosenblatt. Rosenblatt's perceptron was a single-layer neural network designed for image recognition. However, in 1969, Marvin Minsky and Seymour Papert published the book 'Perceptron",
    "773": "Deep learning is a subset of machine learning that is based on artificial neural networks with representation learning. The history of deep learning began with the perceptron in 1957, invented by Frank Rosenblatt. Rosenblatt's perceptron was a single-layer neural network designed for image recognition. However, in 1969, Marvin Minsky and Seymour Papert published the book 'Perceptrons",
    "774": "Deep learning is a subset of machine learning that is based on artificial neural networks with representation learning. The history of deep learning began with the perceptron in 1957, invented by Frank Rosenblatt. Rosenblatt's perceptron was a single-layer neural network designed for image recognition. However, in 1969, Marvin Minsky and Seymour Papert published the book 'Perceptrons'",
    "775": "Deep learning is a subset of machine learning that is based on artificial neural networks with representation learning. The history of deep learning began with the perceptron in 1957, invented by Frank Rosenblatt. Rosenblatt's perceptron was a single-layer neural network designed for image recognition. However, in 1969, Marvin Minsky and Seymour Papert published the book 'Perceptrons', pro",
    "776": "Deep learning is a subset of machine learning that is based on artificial neural networks with representation learning. The history of deep learning began with the perceptron in 1957, invented by Frank Rosenblatt. Rosenblatt's perceptron was a single-layer neural network designed for image recognition. However, in 1969, Marvin Minsky and Seymour Papert published the book 'Perceptrons', prov",
    "777": "Deep learning is a subset of machine learning that is based on artificial neural networks with representation learning. The history of deep learning began with the perceptron in 1957, invented by Frank Rosenblatt. Rosenblatt's perceptron was a single-layer neural network designed for image recognition. However, in 1969, Marvin Minsky and Seymour Papert published the book 'Perceptrons', proving that ",
    "778": "Deep learning is a subset of machine learning that is based on artificial neural networks with representation learning. The history of deep learning began with the perceptron in 1957, invented by Frank Rosenblatt. Rosenblatt's perceptron was a single-layer neural network designed for image recognition. However, in 1969, Marvin Minsky and Seymour Papert published the book 'Perceptrons', proving that single-layer networks could not solve non-linear problems like XOR",
    "779": "Deep learning is a subset of machine learning that is based on artificial neural networks with representation learning. The history of deep learning began with the perceptron in 1957, invented by Frank Rosenblatt. Rosenblatt's perceptron was a single-layer neural network designed for image recognition. However, in 1969, Marvin Minsky and Seymour Papert published the book 'Perceptrons', proving that single-layer networks could not solve non-linear problems like XOR. Th",
    "780": "Deep learning is a subset of machine learning that is based on artificial neural networks with representation learning. The history of deep learning began with the perceptron in 1957, invented by Frank Rosenblatt. Rosenblatt's perceptron was a single-layer neural network designed for image recognition. However, in 1969, Marvin Minsky and Seymour Papert published the book 'Perceptrons', proving that single-layer networks could not solve non-linear problems like XOR. This ",
    "781": "Deep learning is a subset of machine learning that is based on artificial neural networks with representation learning. The history of deep learning began with the perceptron in 1957, invented by Frank Rosenblatt. Rosenblatt's perceptron was a single-layer neural network designed for image recognition. However, in 1969, Marvin Minsky and Seymour Papert published the book 'Perceptrons', proving that single-layer networks could not solve non-linear problems like XOR. This le",
    "782": "Deep learning is a subset of machine learning that is based on artificial neural networks with representation learning. The history of deep learning began with the perceptron in 1957, invented by Frank Rosenblatt. Rosenblatt's perceptron was a single-layer neural network designed for image recognition. However, in 1969, Marvin Minsky and Seymour Papert published the book 'Perceptrons', proving that single-layer networks could not solve non-linear problems like XOR. This led ",
    "783": "Deep learning is a subset of machine learning that is based on artificial neural networks with representation learning. The history of deep learning began with the perceptron in 1957, invented by Frank Rosenblatt. Rosenblatt's perceptron was a single-layer neural network designed for image recognition. However, in 1969, Marvin Minsky and Seymour Papert published the book 'Perceptrons', proving that single-layer networks could not solve non-linear problems like XOR. This led to ",
    "784": "Deep learning is a subset of machine learning that is based on artificial neural networks with representation learning. The history of deep learning began with the perceptron in 1957, invented by Frank Rosenblatt. Rosenblatt's perceptron was a single-layer neural network designed for image recognition. However, in 1969, Marvin Minsky and Seymour Papert published the book 'Perceptrons', proving that single-layer networks could not solve non-linear problems like XOR. This led to a ",
    "785": "Deep learning is a subset of machine learning that is based on artificial neural networks with representation learning. The history of deep learning began with the perceptron in 1957, invented by Frank Rosenblatt. Rosenblatt's perceptron was a single-layer neural network designed for image recognition. However, in 1969, Marvin Minsky and Seymour Papert published the book 'Perceptrons', proving that single-layer networks could not solve non-linear problems like XOR. This led to a per",
    "786": "Deep learning is a subset of machine learning that is based on artificial neural networks with representation learning. The history of deep learning began with the perceptron in 1957, invented by Frank Rosenblatt. Rosenblatt's perceptron was a single-layer neural network designed for image recognition. However, in 1969, Marvin Minsky and Seymour Papert published the book 'Perceptrons', proving that single-layer networks could not solve non-linear problems like XOR. This led to a perio",
    "787": "Deep learning is a subset of machine learning that is based on artificial neural networks with representation learning. The history of deep learning began with the perceptron in 1957, invented by Frank Rosenblatt. Rosenblatt's perceptron was a single-layer neural network designed for image recognition. However, in 1969, Marvin Minsky and Seymour Papert published the book 'Perceptrons', proving that single-layer networks could not solve non-linear problems like XOR. This led to a period ",
    "788": "Deep learning is a subset of machine learning that is based on artificial neural networks with representation learning. The history of deep learning began with the perceptron in 1957, invented by Frank Rosenblatt. Rosenblatt's perceptron was a single-layer neural network designed for image recognition. However, in 1969, Marvin Minsky and Seymour Papert published the book 'Perceptrons', proving that single-layer networks could not solve non-linear problems like XOR. This led to a period called ",
    "789": "Deep learning is a subset of machine learning that is based on artificial neural networks with representation learning. The history of deep learning began with the perceptron in 1957, invented by Frank Rosenblatt. Rosenblatt's perceptron was a single-layer neural network designed for image recognition. However, in 1969, Marvin Minsky and Seymour Papert published the book 'Perceptrons', proving that single-layer networks could not solve non-linear problems like XOR. This led to a period called the first ",
    "790": "Deep learning is a subset of machine learning that is based on artificial neural networks with representation learning. The history of deep learning began with the perceptron in 1957, invented by Frank Rosenblatt. Rosenblatt's perceptron was a single-layer neural network designed for image recognition. However, in 1969, Marvin Minsky and Seymour Papert published the book 'Perceptrons', proving that single-layer networks could not solve non-linear problems like XOR. This led to a period called the first A",
    "791": "Deep learning is a subset of machine learning that is based on artificial neural networks with representation learning. The history of deep learning began with the perceptron in 1957, invented by Frank Rosenblatt. Rosenblatt's perceptron was a single-layer neural network designed for image recognition. However, in 1969, Marvin Minsky and Seymour Papert published the book 'Perceptrons', proving that single-layer networks could not solve non-linear problems like XOR. This led to a period called the first AI",
    "792": "Deep learning is a subset of machine learning that is based on artificial neural networks with representation learning. The history of deep learning began with the perceptron in 1957, invented by Frank Rosenblatt. Rosenblatt's perceptron was a single-layer neural network designed for image recognition. However, in 1969, Marvin Minsky and Seymour Papert published the book 'Perceptrons', proving that single-layer networks could not solve non-linear problems like XOR. This led to a period called the first AI ",
    "793": "Deep learning is a subset of machine learning that is based on artificial neural networks with representation learning. The history of deep learning began with the perceptron in 1957, invented by Frank Rosenblatt. Rosenblatt's perceptron was a single-layer neural network designed for image recognition. However, in 1969, Marvin Minsky and Seymour Papert published the book 'Perceptrons', proving that single-layer networks could not solve non-linear problems like XOR. This led to a period called the first AI w",
    "794": "Deep learning is a subset of machine learning that is based on artificial neural networks with representation learning. The history of deep learning began with the perceptron in 1957, invented by Frank Rosenblatt. Rosenblatt's perceptron was a single-layer neural network designed for image recognition. However, in 1969, Marvin Minsky and Seymour Papert published the book 'Perceptrons', proving that single-layer networks could not solve non-linear problems like XOR. This led to a period called the first AI wint",
    "795": "Deep learning is a subset of machine learning that is based on artificial neural networks with representation learning. The history of deep learning began with the perceptron in 1957, invented by Frank Rosenblatt. Rosenblatt's perceptron was a single-layer neural network designed for image recognition. However, in 1969, Marvin Minsky and Seymour Papert published the book 'Perceptrons', proving that single-layer networks could not solve non-linear problems like XOR. This led to a period called the first AI winter",
    "796": "Deep learning is a subset of machine learning that is based on artificial neural networks with representation learning. The history of deep learning began with the perceptron in 1957, invented by Frank Rosenblatt. Rosenblatt's perceptron was a single-layer neural network designed for image recognition. However, in 1969, Marvin Minsky and Seymour Papert published the book 'Perceptrons', proving that single-layer networks could not solve non-linear problems like XOR. This led to a period called the first AI winter. In the 1980s, the backpropagation algorithm was popularized by ",
    "797": "Deep learning is a subset of machine learning that is based on artificial neural networks with representation learning. The history of deep learning began with the perceptron in 1957, invented by Frank Rosenblatt. Rosenblatt's perceptron was a single-layer neural network designed for image recognition. However, in 1969, Marvin Minsky and Seymour Papert published the book 'Perceptrons', proving that single-layer networks could not solve non-linear problems like XOR. This led to a period called the first AI winter. In the 1980s, the backpropagation algorithm was popularized by G",
    "798": "Deep learning is a subset of machine learning that is based on artificial neural networks with representation learning. The history of deep learning began with the perceptron in 1957, invented by Frank Rosenblatt. Rosenblatt's perceptron was a single-layer neural network designed for image recognition. However, in 1969, Marvin Minsky and Seymour Papert published the book 'Perceptrons', proving that single-layer networks could not solve non-linear problems like XOR. This led to a period called the first AI winter. In the 1980s, the backpropagation algorithm was popularized by Ge",
    "799": "Deep learning is a subset of machine learning that is based on artificial neural networks with representation learning. The history of deep learning began with the perceptron in 1957, invented by Frank Rosenblatt. Rosenblatt's perceptron was a single-layer neural network designed for image recognition. However, in 1969, Marvin Minsky and Seymour Papert published the book 'Perceptrons', proving that single-layer networks could not solve non-linear problems like XOR. This led to a period called the first AI winter. In the 1980s, the backpropagation algorithm was popularized by Geof",
    "800": "Deep learning is a subset of machine learning that is based on artificial neural networks with representation learning. The history of deep learning began with the perceptron in 1957, invented by Frank Rosenblatt. Rosenblatt's perceptron was a single-layer neural network designed for image recognition. However, in 1969, Marvin Minsky and Seymour Papert published the book 'Perceptrons', proving that single-layer networks could not solve non-linear problems like XOR. This led to a period called the first AI winter. In the 1980s, the backpropagation algorithm was popularized by Geoff",
    "801": "Deep learning is a subset of machine learning that is based on artificial neural networks with representation learning. The history of deep learning began with the perceptron in 1957, invented by Frank Rosenblatt. Rosenblatt's perceptron was a single-layer neural network designed for image recognition. However, in 1969, Marvin Minsky and Seymour Papert published the book 'Perceptrons', proving that single-layer networks could not solve non-linear problems like XOR. This led to a period called the first AI winter. In the 1980s, the backpropagation algorithm was popularized by Geoffre",
    "802": "Deep learning is a subset of machine learning that is based on artificial neural networks with representation learning. The history of deep learning began with the perceptron in 1957, invented by Frank Rosenblatt. Rosenblatt's perceptron was a single-layer neural network designed for image recognition. However, in 1969, Marvin Minsky and Seymour Papert published the book 'Perceptrons', proving that single-layer networks could not solve non-linear problems like XOR. This led to a period called the first AI winter. In the 1980s, the backpropagation algorithm was popularized by Geoffrey ",
    "803": "Deep learning is a subset of machine learning that is based on artificial neural networks with representation learning. The history of deep learning began with the perceptron in 1957, invented by Frank Rosenblatt. Rosenblatt's perceptron was a single-layer neural network designed for image recognition. However, in 1969, Marvin Minsky and Seymour Papert published the book 'Perceptrons', proving that single-layer networks could not solve non-linear problems like XOR. This led to a period called the first AI winter. In the 1980s, the backpropagation algorithm was popularized by Geoffrey Hinton, ",
    "804": "Deep learning is a subset of machine learning that is based on artificial neural networks with representation learning. The history of deep learning began with the perceptron in 1957, invented by Frank Rosenblatt. Rosenblatt's perceptron was a single-layer neural network designed for image recognition. However, in 1969, Marvin Minsky and Seymour Papert published the book 'Perceptrons', proving that single-layer networks could not solve non-linear problems like XOR. This led to a period called the first AI winter. In the 1980s, the backpropagation algorithm was popularized by Geoffrey Hinton, Y",
    "805": "Deep learning is a subset of machine learning that is based on artificial neural networks with representation learning. The history of deep learning began with the perceptron in 1957, invented by Frank Rosenblatt. Rosenblatt's perceptron was a single-layer neural network designed for image recognition. However, in 1969, Marvin Minsky and Seymour Papert published the book 'Perceptrons', proving that single-layer networks could not solve non-linear problems like XOR. This led to a period called the first AI winter. In the 1980s, the backpropagation algorithm was popularized by Geoffrey Hinton, Yan",
    "806": "Deep learning is a subset of machine learning that is based on artificial neural networks with representation learning. The history of deep learning began with the perceptron in 1957, invented by Frank Rosenblatt. Rosenblatt's perceptron was a single-layer neural network designed for image recognition. However, in 1969, Marvin Minsky and Seymour Papert published the book 'Perceptrons', proving that single-layer networks could not solve non-linear problems like XOR. This led to a period called the first AI winter. In the 1980s, the backpropagation algorithm was popularized by Geoffrey Hinton, Yann ",
    "807": "Deep learning is a subset of machine learning that is based on artificial neural networks with representation learning. The history of deep learning began with the perceptron in 1957, invented by Frank Rosenblatt. Rosenblatt's perceptron was a single-layer neural network designed for image recognition. However, in 1969, Marvin Minsky and Seymour Papert published the book 'Perceptrons', proving that single-layer networks could not solve non-linear problems like XOR. This led to a period called the first AI winter. In the 1980s, the backpropagation algorithm was popularized by Geoffrey Hinton, Yann LeCun, and ",
    "808": "Deep learning is a subset of machine learning that is based on artificial neural networks with representation learning. The history of deep learning began with the perceptron in 1957, invented by Frank Rosenblatt. Rosenblatt's perceptron was a single-layer neural network designed for image recognition. However, in 1969, Marvin Minsky and Seymour Papert published the book 'Perceptrons', proving that single-layer networks could not solve non-linear problems like XOR. This led to a period called the first AI winter. In the 1980s, the backpropagation algorithm was popularized by Geoffrey Hinton, Yann LeCun, and Y",
    "809": "Deep learning is a subset of machine learning that is based on artificial neural networks with representation learning. The history of deep learning began with the perceptron in 1957, invented by Frank Rosenblatt. Rosenblatt's perceptron was a single-layer neural network designed for image recognition. However, in 1969, Marvin Minsky and Seymour Papert published the book 'Perceptrons', proving that single-layer networks could not solve non-linear problems like XOR. This led to a period called the first AI winter. In the 1980s, the backpropagation algorithm was popularized by Geoffrey Hinton, Yann LeCun, and Yos",
    "810": "Deep learning is a subset of machine learning that is based on artificial neural networks with representation learning. The history of deep learning began with the perceptron in 1957, invented by Frank Rosenblatt. Rosenblatt's perceptron was a single-layer neural network designed for image recognition. However, in 1969, Marvin Minsky and Seymour Papert published the book 'Perceptrons', proving that single-layer networks could not solve non-linear problems like XOR. This led to a period called the first AI winter. In the 1980s, the backpropagation algorithm was popularized by Geoffrey Hinton, Yann LeCun, and Yoshu",
    "811": "Deep learning is a subset of machine learning that is based on artificial neural networks with representation learning. The history of deep learning began with the perceptron in 1957, invented by Frank Rosenblatt. Rosenblatt's perceptron was a single-layer neural network designed for image recognition. However, in 1969, Marvin Minsky and Seymour Papert published the book 'Perceptrons', proving that single-layer networks could not solve non-linear problems like XOR. This led to a period called the first AI winter. In the 1980s, the backpropagation algorithm was popularized by Geoffrey Hinton, Yann LeCun, and Yoshua ",
    "812": "Deep learning is a subset of machine learning that is based on artificial neural networks with representation learning. The history of deep learning began with the perceptron in 1957, invented by Frank Rosenblatt. Rosenblatt's perceptron was a single-layer neural network designed for image recognition. However, in 1969, Marvin Minsky and Seymour Papert published the book 'Perceptrons', proving that single-layer networks could not solve non-linear problems like XOR. This led to a period called the first AI winter. In the 1980s, the backpropagation algorithm was popularized by Geoffrey Hinton, Yann LeCun, and Yoshua Bengio, allowing deep multi-layer n",
    "813": "Deep learning is a subset of machine learning that is based on artificial neural networks with representation learning. The history of deep learning began with the perceptron in 1957, invented by Frank Rosenblatt. Rosenblatt's perceptron was a single-layer neural network designed for image recognition. However, in 1969, Marvin Minsky and Seymour Papert published the book 'Perceptrons', proving that single-layer networks could not solve non-linear problems like XOR. This led to a period called the first AI winter. In the 1980s, the backpropagation algorithm was popularized by Geoffrey Hinton, Yann LeCun, and Yoshua Bengio, allowing deep multi-layer neural n",
    "814": "Deep learning is a subset of machine learning that is based on artificial neural networks with representation learning. The history of deep learning began with the perceptron in 1957, invented by Frank Rosenblatt. Rosenblatt's perceptron was a single-layer neural network designed for image recognition. However, in 1969, Marvin Minsky and Seymour Papert published the book 'Perceptrons', proving that single-layer networks could not solve non-linear problems like XOR. This led to a period called the first AI winter. In the 1980s, the backpropagation algorithm was popularized by Geoffrey Hinton, Yann LeCun, and Yoshua Bengio, allowing deep multi-layer neural networks to be tra",
    "815": "Deep learning is a subset of machine learning that is based on artificial neural networks with representation learning. The history of deep learning began with the perceptron in 1957, invented by Frank Rosenblatt. Rosenblatt's perceptron was a single-layer neural network designed for image recognition. However, in 1969, Marvin Minsky and Seymour Papert published the book 'Perceptrons', proving that single-layer networks could not solve non-linear problems like XOR. This led to a period called the first AI winter. In the 1980s, the backpropagation algorithm was popularized by Geoffrey Hinton, Yann LeCun, and Yoshua Bengio, allowing deep multi-layer neural networks to be train",
    "816": "Deep learning is a subset of machine learning that is based on artificial neural networks with representation learning. The history of deep learning began with the perceptron in 1957, invented by Frank Rosenblatt. Rosenblatt's perceptron was a single-layer neural network designed for image recognition. However, in 1969, Marvin Minsky and Seymour Papert published the book 'Perceptrons', proving that single-layer networks could not solve non-linear problems like XOR. This led to a period called the first AI winter. In the 1980s, the backpropagation algorithm was popularized by Geoffrey Hinton, Yann LeCun, and Yoshua Bengio, allowing deep multi-layer neural networks to be trained ",
    "817": "Deep learning is a subset of machine learning that is based on artificial neural networks with representation learning. The history of deep learning began with the perceptron in 1957, invented by Frank Rosenblatt. Rosenblatt's perceptron was a single-layer neural network designed for image recognition. However, in 1969, Marvin Minsky and Seymour Papert published the book 'Perceptrons', proving that single-layer networks could not solve non-linear problems like XOR. This led to a period called the first AI winter. In the 1980s, the backpropagation algorithm was popularized by Geoffrey Hinton, Yann LeCun, and Yoshua Bengio, allowing deep multi-layer neural networks to be trained ef",
    "818": "Deep learning is a subset of machine learning that is based on artificial neural networks with representation learning. The history of deep learning began with the perceptron in 1957, invented by Frank Rosenblatt. Rosenblatt's perceptron was a single-layer neural network designed for image recognition. However, in 1969, Marvin Minsky and Seymour Papert published the book 'Perceptrons', proving that single-layer networks could not solve non-linear problems like XOR. This led to a period called the first AI winter. In the 1980s, the backpropagation algorithm was popularized by Geoffrey Hinton, Yann LeCun, and Yoshua Bengio, allowing deep multi-layer neural networks to be trained effici",
    "819": "Deep learning is a subset of machine learning that is based on artificial neural networks with representation learning. The history of deep learning began with the perceptron in 1957, invented by Frank Rosenblatt. Rosenblatt's perceptron was a single-layer neural network designed for image recognition. However, in 1969, Marvin Minsky and Seymour Papert published the book 'Perceptrons', proving that single-layer networks could not solve non-linear problems like XOR. This led to a period called the first AI winter. In the 1980s, the backpropagation algorithm was popularized by Geoffrey Hinton, Yann LeCun, and Yoshua Bengio, allowing deep multi-layer neural networks to be trained efficient",
    "820": "Deep learning is a subset of machine learning that is based on artificial neural networks with representation learning. The history of deep learning began with the perceptron in 1957, invented by Frank Rosenblatt. Rosenblatt's perceptron was a single-layer neural network designed for image recognition. However, in 1969, Marvin Minsky and Seymour Papert published the book 'Perceptrons', proving that single-layer networks could not solve non-linear problems like XOR. This led to a period called the first AI winter. In the 1980s, the backpropagation algorithm was popularized by Geoffrey Hinton, Yann LeCun, and Yoshua Bengio, allowing deep multi-layer neural networks to be trained efficientl",
    "821": "Deep learning is a subset of machine learning that is based on artificial neural networks with representation learning. The history of deep learning began with the perceptron in 1957, invented by Frank Rosenblatt. Rosenblatt's perceptron was a single-layer neural network designed for image recognition. However, in 1969, Marvin Minsky and Seymour Papert published the book 'Perceptrons', proving that single-layer networks could not solve non-linear problems like XOR. This led to a period called the first AI winter. In the 1980s, the backpropagation algorithm was popularized by Geoffrey Hinton, Yann LeCun, and Yoshua Bengio, allowing deep multi-layer neural networks to be trained efficiently",
    "822": "Deep learning is a subset of machine learning that is based on artificial neural networks with representation learning. The history of deep learning began with the perceptron in 1957, invented by Frank Rosenblatt. Rosenblatt's perceptron was a single-layer neural network designed for image recognition. However, in 1969, Marvin Minsky and Seymour Papert published the book 'Perceptrons', proving that single-layer networks could not solve non-linear problems like XOR. This led to a period called the first AI winter. In the 1980s, the backpropagation algorithm was popularized by Geoffrey Hinton, Yann LeCun, and Yoshua Bengio, allowing deep multi-layer neural networks to be trained efficiently. The ",
    "823": "Deep learning is a subset of machine learning that is based on artificial neural networks with representation learning. The history of deep learning began with the perceptron in 1957, invented by Frank Rosenblatt. Rosenblatt's perceptron was a single-layer neural network designed for image recognition. However, in 1969, Marvin Minsky and Seymour Papert published the book 'Perceptrons', proving that single-layer networks could not solve non-linear problems like XOR. This led to a period called the first AI winter. In the 1980s, the backpropagation algorithm was popularized by Geoffrey Hinton, Yann LeCun, and Yoshua Bengio, allowing deep multi-layer neural networks to be trained efficiently. The massive ",
    "824": "Deep learning is a subset of machine learning that is based on artificial neural networks with representation learning. The history of deep learning began with the perceptron in 1957, invented by Frank Rosenblatt. Rosenblatt's perceptron was a single-layer neural network designed for image recognition. However, in 1969, Marvin Minsky and Seymour Papert published the book 'Perceptrons', proving that single-layer networks could not solve non-linear problems like XOR. This led to a period called the first AI winter. In the 1980s, the backpropagation algorithm was popularized by Geoffrey Hinton, Yann LeCun, and Yoshua Bengio, allowing deep multi-layer neural networks to be trained efficiently. The massive b",
    "825": "Deep learning is a subset of machine learning that is based on artificial neural networks with representation learning. The history of deep learning began with the perceptron in 1957, invented by Frank Rosenblatt. Rosenblatt's perceptron was a single-layer neural network designed for image recognition. However, in 1969, Marvin Minsky and Seymour Papert published the book 'Perceptrons', proving that single-layer networks could not solve non-linear problems like XOR. This led to a period called the first AI winter. In the 1980s, the backpropagation algorithm was popularized by Geoffrey Hinton, Yann LeCun, and Yoshua Bengio, allowing deep multi-layer neural networks to be trained efficiently. The massive brea",
    "826": "Deep learning is a subset of machine learning that is based on artificial neural networks with representation learning. The history of deep learning began with the perceptron in 1957, invented by Frank Rosenblatt. Rosenblatt's perceptron was a single-layer neural network designed for image recognition. However, in 1969, Marvin Minsky and Seymour Papert published the book 'Perceptrons', proving that single-layer networks could not solve non-linear problems like XOR. This led to a period called the first AI winter. In the 1980s, the backpropagation algorithm was popularized by Geoffrey Hinton, Yann LeCun, and Yoshua Bengio, allowing deep multi-layer neural networks to be trained efficiently. The massive break",
    "827": "Deep learning is a subset of machine learning that is based on artificial neural networks with representation learning. The history of deep learning began with the perceptron in 1957, invented by Frank Rosenblatt. Rosenblatt's perceptron was a single-layer neural network designed for image recognition. However, in 1969, Marvin Minsky and Seymour Papert published the book 'Perceptrons', proving that single-layer networks could not solve non-linear problems like XOR. This led to a period called the first AI winter. In the 1980s, the backpropagation algorithm was popularized by Geoffrey Hinton, Yann LeCun, and Yoshua Bengio, allowing deep multi-layer neural networks to be trained efficiently. The massive breakth",
    "828": "Deep learning is a subset of machine learning that is based on artificial neural networks with representation learning. The history of deep learning began with the perceptron in 1957, invented by Frank Rosenblatt. Rosenblatt's perceptron was a single-layer neural network designed for image recognition. However, in 1969, Marvin Minsky and Seymour Papert published the book 'Perceptrons', proving that single-layer networks could not solve non-linear problems like XOR. This led to a period called the first AI winter. In the 1980s, the backpropagation algorithm was popularized by Geoffrey Hinton, Yann LeCun, and Yoshua Bengio, allowing deep multi-layer neural networks to be trained efficiently. The massive breakthro",
    "829": "Deep learning is a subset of machine learning that is based on artificial neural networks with representation learning. The history of deep learning began with the perceptron in 1957, invented by Frank Rosenblatt. Rosenblatt's perceptron was a single-layer neural network designed for image recognition. However, in 1969, Marvin Minsky and Seymour Papert published the book 'Perceptrons', proving that single-layer networks could not solve non-linear problems like XOR. This led to a period called the first AI winter. In the 1980s, the backpropagation algorithm was popularized by Geoffrey Hinton, Yann LeCun, and Yoshua Bengio, allowing deep multi-layer neural networks to be trained efficiently. The massive breakthrou",
    "830": "Deep learning is a subset of machine learning that is based on artificial neural networks with representation learning. The history of deep learning began with the perceptron in 1957, invented by Frank Rosenblatt. Rosenblatt's perceptron was a single-layer neural network designed for image recognition. However, in 1969, Marvin Minsky and Seymour Papert published the book 'Perceptrons', proving that single-layer networks could not solve non-linear problems like XOR. This led to a period called the first AI winter. In the 1980s, the backpropagation algorithm was popularized by Geoffrey Hinton, Yann LeCun, and Yoshua Bengio, allowing deep multi-layer neural networks to be trained efficiently. The massive breakthroug",
    "831": "Deep learning is a subset of machine learning that is based on artificial neural networks with representation learning. The history of deep learning began with the perceptron in 1957, invented by Frank Rosenblatt. Rosenblatt's perceptron was a single-layer neural network designed for image recognition. However, in 1969, Marvin Minsky and Seymour Papert published the book 'Perceptrons', proving that single-layer networks could not solve non-linear problems like XOR. This led to a period called the first AI winter. In the 1980s, the backpropagation algorithm was popularized by Geoffrey Hinton, Yann LeCun, and Yoshua Bengio, allowing deep multi-layer neural networks to be trained efficiently. The massive breakthrough ",
    "832": "Deep learning is a subset of machine learning that is based on artificial neural networks with representation learning. The history of deep learning began with the perceptron in 1957, invented by Frank Rosenblatt. Rosenblatt's perceptron was a single-layer neural network designed for image recognition. However, in 1969, Marvin Minsky and Seymour Papert published the book 'Perceptrons', proving that single-layer networks could not solve non-linear problems like XOR. This led to a period called the first AI winter. In the 1980s, the backpropagation algorithm was popularized by Geoffrey Hinton, Yann LeCun, and Yoshua Bengio, allowing deep multi-layer neural networks to be trained efficiently. The massive breakthrough came ",
    "833": "Deep learning is a subset of machine learning that is based on artificial neural networks with representation learning. The history of deep learning began with the perceptron in 1957, invented by Frank Rosenblatt. Rosenblatt's perceptron was a single-layer neural network designed for image recognition. However, in 1969, Marvin Minsky and Seymour Papert published the book 'Perceptrons', proving that single-layer networks could not solve non-linear problems like XOR. This led to a period called the first AI winter. In the 1980s, the backpropagation algorithm was popularized by Geoffrey Hinton, Yann LeCun, and Yoshua Bengio, allowing deep multi-layer neural networks to be trained efficiently. The massive breakthrough came in ",
    "834": "Deep learning is a subset of machine learning that is based on artificial neural networks with representation learning. The history of deep learning began with the perceptron in 1957, invented by Frank Rosenblatt. Rosenblatt's perceptron was a single-layer neural network designed for image recognition. However, in 1969, Marvin Minsky and Seymour Papert published the book 'Perceptrons', proving that single-layer networks could not solve non-linear problems like XOR. This led to a period called the first AI winter. In the 1980s, the backpropagation algorithm was popularized by Geoffrey Hinton, Yann LeCun, and Yoshua Bengio, allowing deep multi-layer neural networks to be trained efficiently. The massive breakthrough came in 2012",
    "835": "Deep learning is a subset of machine learning that is based on artificial neural networks with representation learning. The history of deep learning began with the perceptron in 1957, invented by Frank Rosenblatt. Rosenblatt's perceptron was a single-layer neural network designed for image recognition. However, in 1969, Marvin Minsky and Seymour Papert published the book 'Perceptrons', proving that single-layer networks could not solve non-linear problems like XOR. This led to a period called the first AI winter. In the 1980s, the backpropagation algorithm was popularized by Geoffrey Hinton, Yann LeCun, and Yoshua Bengio, allowing deep multi-layer neural networks to be trained efficiently. The massive breakthrough came in 2012 ",
    "836": "Deep learning is a subset of machine learning that is based on artificial neural networks with representation learning. The history of deep learning began with the perceptron in 1957, invented by Frank Rosenblatt. Rosenblatt's perceptron was a single-layer neural network designed for image recognition. However, in 1969, Marvin Minsky and Seymour Papert published the book 'Perceptrons', proving that single-layer networks could not solve non-linear problems like XOR. This led to a period called the first AI winter. In the 1980s, the backpropagation algorithm was popularized by Geoffrey Hinton, Yann LeCun, and Yoshua Bengio, allowing deep multi-layer neural networks to be trained efficiently. The massive breakthrough came in 2012 with ",
    "837": "Deep learning is a subset of machine learning that is based on artificial neural networks with representation learning. The history of deep learning began with the perceptron in 1957, invented by Frank Rosenblatt. Rosenblatt's perceptron was a single-layer neural network designed for image recognition. However, in 1969, Marvin Minsky and Seymour Papert published the book 'Perceptrons', proving that single-layer networks could not solve non-linear problems like XOR. This led to a period called the first AI winter. In the 1980s, the backpropagation algorithm was popularized by Geoffrey Hinton, Yann LeCun, and Yoshua Bengio, allowing deep multi-layer neural networks to be trained efficiently. The massive breakthrough came in 2012 with Alex",
    "838": "Deep learning is a subset of machine learning that is based on artificial neural networks with representation learning. The history of deep learning began with the perceptron in 1957, invented by Frank Rosenblatt. Rosenblatt's perceptron was a single-layer neural network designed for image recognition. However, in 1969, Marvin Minsky and Seymour Papert published the book 'Perceptrons', proving that single-layer networks could not solve non-linear problems like XOR. This led to a period called the first AI winter. In the 1980s, the backpropagation algorithm was popularized by Geoffrey Hinton, Yann LeCun, and Yoshua Bengio, allowing deep multi-layer neural networks to be trained efficiently. The massive breakthrough came in 2012 with AlexN",
    "839": "Deep learning is a subset of machine learning that is based on artificial neural networks with representation learning. The history of deep learning began with the perceptron in 1957, invented by Frank Rosenblatt. Rosenblatt's perceptron was a single-layer neural network designed for image recognition. However, in 1969, Marvin Minsky and Seymour Papert published the book 'Perceptrons', proving that single-layer networks could not solve non-linear problems like XOR. This led to a period called the first AI winter. In the 1980s, the backpropagation algorithm was popularized by Geoffrey Hinton, Yann LeCun, and Yoshua Bengio, allowing deep multi-layer neural networks to be trained efficiently. The massive breakthrough came in 2012 with AlexNet",
    "840": "Deep learning is a subset of machine learning that is based on artificial neural networks with representation learning. The history of deep learning began with the perceptron in 1957, invented by Frank Rosenblatt. Rosenblatt's perceptron was a single-layer neural network designed for image recognition. However, in 1969, Marvin Minsky and Seymour Papert published the book 'Perceptrons', proving that single-layer networks could not solve non-linear problems like XOR. This led to a period called the first AI winter. In the 1980s, the backpropagation algorithm was popularized by Geoffrey Hinton, Yann LeCun, and Yoshua Bengio, allowing deep multi-layer neural networks to be trained efficiently. The massive breakthrough came in 2012 with AlexNet, ",
    "841": "Deep learning is a subset of machine learning that is based on artificial neural networks with representation learning. The history of deep learning began with the perceptron in 1957, invented by Frank Rosenblatt. Rosenblatt's perceptron was a single-layer neural network designed for image recognition. However, in 1969, Marvin Minsky and Seymour Papert published the book 'Perceptrons', proving that single-layer networks could not solve non-linear problems like XOR. This led to a period called the first AI winter. In the 1980s, the backpropagation algorithm was popularized by Geoffrey Hinton, Yann LeCun, and Yoshua Bengio, allowing deep multi-layer neural networks to be trained efficiently. The massive breakthrough came in 2012 with AlexNet, a ",
    "842": "Deep learning is a subset of machine learning that is based on artificial neural networks with representation learning. The history of deep learning began with the perceptron in 1957, invented by Frank Rosenblatt. Rosenblatt's perceptron was a single-layer neural network designed for image recognition. However, in 1969, Marvin Minsky and Seymour Papert published the book 'Perceptrons', proving that single-layer networks could not solve non-linear problems like XOR. This led to a period called the first AI winter. In the 1980s, the backpropagation algorithm was popularized by Geoffrey Hinton, Yann LeCun, and Yoshua Bengio, allowing deep multi-layer neural networks to be trained efficiently. The massive breakthrough came in 2012 with AlexNet, a deep ",
    "843": "Deep learning is a subset of machine learning that is based on artificial neural networks with representation learning. The history of deep learning began with the perceptron in 1957, invented by Frank Rosenblatt. Rosenblatt's perceptron was a single-layer neural network designed for image recognition. However, in 1969, Marvin Minsky and Seymour Papert published the book 'Perceptrons', proving that single-layer networks could not solve non-linear problems like XOR. This led to a period called the first AI winter. In the 1980s, the backpropagation algorithm was popularized by Geoffrey Hinton, Yann LeCun, and Yoshua Bengio, allowing deep multi-layer neural networks to be trained efficiently. The massive breakthrough came in 2012 with AlexNet, a deep con",
    "844": "Deep learning is a subset of machine learning that is based on artificial neural networks with representation learning. The history of deep learning began with the perceptron in 1957, invented by Frank Rosenblatt. Rosenblatt's perceptron was a single-layer neural network designed for image recognition. However, in 1969, Marvin Minsky and Seymour Papert published the book 'Perceptrons', proving that single-layer networks could not solve non-linear problems like XOR. This led to a period called the first AI winter. In the 1980s, the backpropagation algorithm was popularized by Geoffrey Hinton, Yann LeCun, and Yoshua Bengio, allowing deep multi-layer neural networks to be trained efficiently. The massive breakthrough came in 2012 with AlexNet, a deep conv",
    "845": "Deep learning is a subset of machine learning that is based on artificial neural networks with representation learning. The history of deep learning began with the perceptron in 1957, invented by Frank Rosenblatt. Rosenblatt's perceptron was a single-layer neural network designed for image recognition. However, in 1969, Marvin Minsky and Seymour Papert published the book 'Perceptrons', proving that single-layer networks could not solve non-linear problems like XOR. This led to a period called the first AI winter. In the 1980s, the backpropagation algorithm was popularized by Geoffrey Hinton, Yann LeCun, and Yoshua Bengio, allowing deep multi-layer neural networks to be trained efficiently. The massive breakthrough came in 2012 with AlexNet, a deep convol",
    "846": "Deep learning is a subset of machine learning that is based on artificial neural networks with representation learning. The history of deep learning began with the perceptron in 1957, invented by Frank Rosenblatt. Rosenblatt's perceptron was a single-layer neural network designed for image recognition. However, in 1969, Marvin Minsky and Seymour Papert published the book 'Perceptrons', proving that single-layer networks could not solve non-linear problems like XOR. This led to a period called the first AI winter. In the 1980s, the backpropagation algorithm was popularized by Geoffrey Hinton, Yann LeCun, and Yoshua Bengio, allowing deep multi-layer neural networks to be trained efficiently. The massive breakthrough came in 2012 with AlexNet, a deep convolut",
    "847": "Deep learning is a subset of machine learning that is based on artificial neural networks with representation learning. The history of deep learning began with the perceptron in 1957, invented by Frank Rosenblatt. Rosenblatt's perceptron was a single-layer neural network designed for image recognition. However, in 1969, Marvin Minsky and Seymour Papert published the book 'Perceptrons', proving that single-layer networks could not solve non-linear problems like XOR. This led to a period called the first AI winter. In the 1980s, the backpropagation algorithm was popularized by Geoffrey Hinton, Yann LeCun, and Yoshua Bengio, allowing deep multi-layer neural networks to be trained efficiently. The massive breakthrough came in 2012 with AlexNet, a deep convolution",
    "848": "Deep learning is a subset of machine learning that is based on artificial neural networks with representation learning. The history of deep learning began with the perceptron in 1957, invented by Frank Rosenblatt. Rosenblatt's perceptron was a single-layer neural network designed for image recognition. However, in 1969, Marvin Minsky and Seymour Papert published the book 'Perceptrons', proving that single-layer networks could not solve non-linear problems like XOR. This led to a period called the first AI winter. In the 1980s, the backpropagation algorithm was popularized by Geoffrey Hinton, Yann LeCun, and Yoshua Bengio, allowing deep multi-layer neural networks to be trained efficiently. The massive breakthrough came in 2012 with AlexNet, a deep convolutional neural n",
    "849": "Deep learning is a subset of machine learning that is based on artificial neural networks with representation learning. The history of deep learning began with the perceptron in 1957, invented by Frank Rosenblatt. Rosenblatt's perceptron was a single-layer neural network designed for image recognition. However, in 1969, Marvin Minsky and Seymour Papert published the book 'Perceptrons', proving that single-layer networks could not solve non-linear problems like XOR. This led to a period called the first AI winter. In the 1980s, the backpropagation algorithm was popularized by Geoffrey Hinton, Yann LeCun, and Yoshua Bengio, allowing deep multi-layer neural networks to be trained efficiently. The massive breakthrough came in 2012 with AlexNet, a deep convolutional neural network ",
    "850": "Deep learning is a subset of machine learning that is based on artificial neural networks with representation learning. The history of deep learning began with the perceptron in 1957, invented by Frank Rosenblatt. Rosenblatt's perceptron was a single-layer neural network designed for image recognition. However, in 1969, Marvin Minsky and Seymour Papert published the book 'Perceptrons', proving that single-layer networks could not solve non-linear problems like XOR. This led to a period called the first AI winter. In the 1980s, the backpropagation algorithm was popularized by Geoffrey Hinton, Yann LeCun, and Yoshua Bengio, allowing deep multi-layer neural networks to be trained efficiently. The massive breakthrough came in 2012 with AlexNet, a deep convolutional neural network that ",
    "851": "Deep learning is a subset of machine learning that is based on artificial neural networks with representation learning. The history of deep learning began with the perceptron in 1957, invented by Frank Rosenblatt. Rosenblatt's perceptron was a single-layer neural network designed for image recognition. However, in 1969, Marvin Minsky and Seymour Papert published the book 'Perceptrons', proving that single-layer networks could not solve non-linear problems like XOR. This led to a period called the first AI winter. In the 1980s, the backpropagation algorithm was popularized by Geoffrey Hinton, Yann LeCun, and Yoshua Bengio, allowing deep multi-layer neural networks to be trained efficiently. The massive breakthrough came in 2012 with AlexNet, a deep convolutional neural network that won the ImageNet challenge by a ",
    "852": "Deep learning is a subset of machine learning that is based on artificial neural networks with representation learning. The history of deep learning began with the perceptron in 1957, invented by Frank Rosenblatt. Rosenblatt's perceptron was a single-layer neural network designed for image recognition. However, in 1969, Marvin Minsky and Seymour Papert published the book 'Perceptrons', proving that single-layer networks could not solve non-linear problems like XOR. This led to a period called the first AI winter. In the 1980s, the backpropagation algorithm was popularized by Geoffrey Hinton, Yann LeCun, and Yoshua Bengio, allowing deep multi-layer neural networks to be trained efficiently. The massive breakthrough came in 2012 with AlexNet, a deep convolutional neural network that won the ImageNet challenge by a massive ",
    "853": "Deep learning is a subset of machine learning that is based on artificial neural networks with representation learning. The history of deep learning began with the perceptron in 1957, invented by Frank Rosenblatt. Rosenblatt's perceptron was a single-layer neural network designed for image recognition. However, in 1969, Marvin Minsky and Seymour Papert published the book 'Perceptrons', proving that single-layer networks could not solve non-linear problems like XOR. This led to a period called the first AI winter. In the 1980s, the backpropagation algorithm was popularized by Geoffrey Hinton, Yann LeCun, and Yoshua Bengio, allowing deep multi-layer neural networks to be trained efficiently. The massive breakthrough came in 2012 with AlexNet, a deep convolutional neural network that won the ImageNet challenge by a massive margin",
    "854": "Deep learning is a subset of machine learning that is based on artificial neural networks with representation learning. The history of deep learning began with the perceptron in 1957, invented by Frank Rosenblatt. Rosenblatt's perceptron was a single-layer neural network designed for image recognition. However, in 1969, Marvin Minsky and Seymour Papert published the book 'Perceptrons', proving that single-layer networks could not solve non-linear problems like XOR. This led to a period called the first AI winter. In the 1980s, the backpropagation algorithm was popularized by Geoffrey Hinton, Yann LeCun, and Yoshua Bengio, allowing deep multi-layer neural networks to be trained efficiently. The massive breakthrough came in 2012 with AlexNet, a deep convolutional neural network that won the ImageNet challenge by a massive margin, in",
    "855": "Deep learning is a subset of machine learning that is based on artificial neural networks with representation learning. The history of deep learning began with the perceptron in 1957, invented by Frank Rosenblatt. Rosenblatt's perceptron was a single-layer neural network designed for image recognition. However, in 1969, Marvin Minsky and Seymour Papert published the book 'Perceptrons', proving that single-layer networks could not solve non-linear problems like XOR. This led to a period called the first AI winter. In the 1980s, the backpropagation algorithm was popularized by Geoffrey Hinton, Yann LeCun, and Yoshua Bengio, allowing deep multi-layer neural networks to be trained efficiently. The massive breakthrough came in 2012 with AlexNet, a deep convolutional neural network that won the ImageNet challenge by a massive margin, init",
    "856": "Deep learning is a subset of machine learning that is based on artificial neural networks with representation learning. The history of deep learning began with the perceptron in 1957, invented by Frank Rosenblatt. Rosenblatt's perceptron was a single-layer neural network designed for image recognition. However, in 1969, Marvin Minsky and Seymour Papert published the book 'Perceptrons', proving that single-layer networks could not solve non-linear problems like XOR. This led to a period called the first AI winter. In the 1980s, the backpropagation algorithm was popularized by Geoffrey Hinton, Yann LeCun, and Yoshua Bengio, allowing deep multi-layer neural networks to be trained efficiently. The massive breakthrough came in 2012 with AlexNet, a deep convolutional neural network that won the ImageNet challenge by a massive margin, initi",
    "857": "Deep learning is a subset of machine learning that is based on artificial neural networks with representation learning. The history of deep learning began with the perceptron in 1957, invented by Frank Rosenblatt. Rosenblatt's perceptron was a single-layer neural network designed for image recognition. However, in 1969, Marvin Minsky and Seymour Papert published the book 'Perceptrons', proving that single-layer networks could not solve non-linear problems like XOR. This led to a period called the first AI winter. In the 1980s, the backpropagation algorithm was popularized by Geoffrey Hinton, Yann LeCun, and Yoshua Bengio, allowing deep multi-layer neural networks to be trained efficiently. The massive breakthrough came in 2012 with AlexNet, a deep convolutional neural network that won the ImageNet challenge by a massive margin, initiat",
    "858": "Deep learning is a subset of machine learning that is based on artificial neural networks with representation learning. The history of deep learning began with the perceptron in 1957, invented by Frank Rosenblatt. Rosenblatt's perceptron was a single-layer neural network designed for image recognition. However, in 1969, Marvin Minsky and Seymour Papert published the book 'Perceptrons', proving that single-layer networks could not solve non-linear problems like XOR. This led to a period called the first AI winter. In the 1980s, the backpropagation algorithm was popularized by Geoffrey Hinton, Yann LeCun, and Yoshua Bengio, allowing deep multi-layer neural networks to be trained efficiently. The massive breakthrough came in 2012 with AlexNet, a deep convolutional neural network that won the ImageNet challenge by a massive margin, initiating the modern ",
    "859": "Deep learning is a subset of machine learning that is based on artificial neural networks with representation learning. The history of deep learning began with the perceptron in 1957, invented by Frank Rosenblatt. Rosenblatt's perceptron was a single-layer neural network designed for image recognition. However, in 1969, Marvin Minsky and Seymour Papert published the book 'Perceptrons', proving that single-layer networks could not solve non-linear problems like XOR. This led to a period called the first AI winter. In the 1980s, the backpropagation algorithm was popularized by Geoffrey Hinton, Yann LeCun, and Yoshua Bengio, allowing deep multi-layer neural networks to be trained efficiently. The massive breakthrough came in 2012 with AlexNet, a deep convolutional neural network that won the ImageNet challenge by a massive margin, initiating the modern er",
    "860": "Deep learning is a subset of machine learning that is based on artificial neural networks with representation learning. The history of deep learning began with the perceptron in 1957, invented by Frank Rosenblatt. Rosenblatt's perceptron was a single-layer neural network designed for image recognition. However, in 1969, Marvin Minsky and Seymour Papert published the book 'Perceptrons', proving that single-layer networks could not solve non-linear problems like XOR. This led to a period called the first AI winter. In the 1980s, the backpropagation algorithm was popularized by Geoffrey Hinton, Yann LeCun, and Yoshua Bengio, allowing deep multi-layer neural networks to be trained efficiently. The massive breakthrough came in 2012 with AlexNet, a deep convolutional neural network that won the ImageNet challenge by a massive margin, initiating the modern era ",
    "861": "Deep learning is a subset of machine learning that is based on artificial neural networks with representation learning. The history of deep learning began with the perceptron in 1957, invented by Frank Rosenblatt. Rosenblatt's perceptron was a single-layer neural network designed for image recognition. However, in 1969, Marvin Minsky and Seymour Papert published the book 'Perceptrons', proving that single-layer networks could not solve non-linear problems like XOR. This led to a period called the first AI winter. In the 1980s, the backpropagation algorithm was popularized by Geoffrey Hinton, Yann LeCun, and Yoshua Bengio, allowing deep multi-layer neural networks to be trained efficiently. The massive breakthrough came in 2012 with AlexNet, a deep convolutional neural network that won the ImageNet challenge by a massive margin, initiating the modern era of deep learning ",
    "862": "Deep learning is a subset of machine learning that is based on artificial neural networks with representation learning. The history of deep learning began with the perceptron in 1957, invented by Frank Rosenblatt. Rosenblatt's perceptron was a single-layer neural network designed for image recognition. However, in 1969, Marvin Minsky and Seymour Papert published the book 'Perceptrons', proving that single-layer networks could not solve non-linear problems like XOR. This led to a period called the first AI winter. In the 1980s, the backpropagation algorithm was popularized by Geoffrey Hinton, Yann LeCun, and Yoshua Bengio, allowing deep multi-layer neural networks to be trained efficiently. The massive breakthrough came in 2012 with AlexNet, a deep convolutional neural network that won the ImageNet challenge by a massive margin, initiating the modern era of deep learning and ",
    "863": "Deep learning is a subset of machine learning that is based on artificial neural networks with representation learning. The history of deep learning began with the perceptron in 1957, invented by Frank Rosenblatt. Rosenblatt's perceptron was a single-layer neural network designed for image recognition. However, in 1969, Marvin Minsky and Seymour Papert published the book 'Perceptrons', proving that single-layer networks could not solve non-linear problems like XOR. This led to a period called the first AI winter. In the 1980s, the backpropagation algorithm was popularized by Geoffrey Hinton, Yann LeCun, and Yoshua Bengio, allowing deep multi-layer neural networks to be trained efficiently. The massive breakthrough came in 2012 with AlexNet, a deep convolutional neural network that won the ImageNet challenge by a massive margin, initiating the modern era of deep learning and g",
    "864": "Deep learning is a subset of machine learning that is based on artificial neural networks with representation learning. The history of deep learning began with the perceptron in 1957, invented by Frank Rosenblatt. Rosenblatt's perceptron was a single-layer neural network designed for image recognition. However, in 1969, Marvin Minsky and Seymour Papert published the book 'Perceptrons', proving that single-layer networks could not solve non-linear problems like XOR. This led to a period called the first AI winter. In the 1980s, the backpropagation algorithm was popularized by Geoffrey Hinton, Yann LeCun, and Yoshua Bengio, allowing deep multi-layer neural networks to be trained efficiently. The massive breakthrough came in 2012 with AlexNet, a deep convolutional neural network that won the ImageNet challenge by a massive margin, initiating the modern era of deep learning and gener",
    "865": "Deep learning is a subset of machine learning that is based on artificial neural networks with representation learning. The history of deep learning began with the perceptron in 1957, invented by Frank Rosenblatt. Rosenblatt's perceptron was a single-layer neural network designed for image recognition. However, in 1969, Marvin Minsky and Seymour Papert published the book 'Perceptrons', proving that single-layer networks could not solve non-linear problems like XOR. This led to a period called the first AI winter. In the 1980s, the backpropagation algorithm was popularized by Geoffrey Hinton, Yann LeCun, and Yoshua Bengio, allowing deep multi-layer neural networks to be trained efficiently. The massive breakthrough came in 2012 with AlexNet, a deep convolutional neural network that won the ImageNet challenge by a massive margin, initiating the modern era of deep learning and generat",
    "866": "Deep learning is a subset of machine learning that is based on artificial neural networks with representation learning. The history of deep learning began with the perceptron in 1957, invented by Frank Rosenblatt. Rosenblatt's perceptron was a single-layer neural network designed for image recognition. However, in 1969, Marvin Minsky and Seymour Papert published the book 'Perceptrons', proving that single-layer networks could not solve non-linear problems like XOR. This led to a period called the first AI winter. In the 1980s, the backpropagation algorithm was popularized by Geoffrey Hinton, Yann LeCun, and Yoshua Bengio, allowing deep multi-layer neural networks to be trained efficiently. The massive breakthrough came in 2012 with AlexNet, a deep convolutional neural network that won the ImageNet challenge by a massive margin, initiating the modern era of deep learning and generati",
    "867": "Deep learning is a subset of machine learning that is based on artificial neural networks with representation learning. The history of deep learning began with the perceptron in 1957, invented by Frank Rosenblatt. Rosenblatt's perceptron was a single-layer neural network designed for image recognition. However, in 1969, Marvin Minsky and Seymour Papert published the book 'Perceptrons', proving that single-layer networks could not solve non-linear problems like XOR. This led to a period called the first AI winter. In the 1980s, the backpropagation algorithm was popularized by Geoffrey Hinton, Yann LeCun, and Yoshua Bengio, allowing deep multi-layer neural networks to be trained efficiently. The massive breakthrough came in 2012 with AlexNet, a deep convolutional neural network that won the ImageNet challenge by a massive margin, initiating the modern era of deep learning and generative ",
    "868": "Deep learning is a subset of machine learning that is based on artificial neural networks with representation learning. The history of deep learning began with the perceptron in 1957, invented by Frank Rosenblatt. Rosenblatt's perceptron was a single-layer neural network designed for image recognition. However, in 1969, Marvin Minsky and Seymour Papert published the book 'Perceptrons', proving that single-layer networks could not solve non-linear problems like XOR. This led to a period called the first AI winter. In the 1980s, the backpropagation algorithm was popularized by Geoffrey Hinton, Yann LeCun, and Yoshua Bengio, allowing deep multi-layer neural networks to be trained efficiently. The massive breakthrough came in 2012 with AlexNet, a deep convolutional neural network that won the ImageNet challenge by a massive margin, initiating the modern era of deep learning and generative artificial intelligence",
    "869": "Deep learning is a subset of machine learning that is based on artificial neural networks with representation learning. The history of deep learning began with the perceptron in 1957, invented by Frank Rosenblatt. Rosenblatt's perceptron was a single-layer neural network designed for image recognition. However, in 1969, Marvin Minsky and Seymour Papert published the book 'Perceptrons', proving that single-layer networks could not solve non-linear problems like XOR. This led to a period called the first AI winter. In the 1980s, the backpropagation algorithm was popularized by Geoffrey Hinton, Yann LeCun, and Yoshua Bengio, allowing deep multi-layer neural networks to be trained efficiently. The massive breakthrough came in 2012 with AlexNet, a deep convolutional neural network that won the ImageNet challenge by a massive margin, initiating the modern era of deep learning and generative artificial intelligence.\n",
    "870": "Deep learning is a subset of machine learning that is based on artificial neural networks with representation learning. The history of deep learning began with the perceptron in 1957, invented by Frank Rosenblatt. Rosenblatt's perceptron was a single-layer neural network designed for image recognition. However, in 1969, Marvin Minsky and Seymour Papert published the book 'Perceptrons', proving that single-layer networks could not solve non-linear problems like XOR. This led to a period called the first AI winter. In the 1980s, the backpropagation algorithm was popularized by Geoffrey Hinton, Yann LeCun, and Yoshua Bengio, allowing deep multi-layer neural networks to be trained efficiently. The massive breakthrough came in 2012 with AlexNet, a deep convolutional neural network that won the ImageNet challenge by a massive margin, initiating the modern era of deep learning and generative artificial intelligence.\nDeep learning is a subset of machine learning ",
    "871": "Deep learning is a subset of machine learning that is based on artificial neural networks with representation learning. The history of deep learning began with the perceptron in 1957, invented by Frank Rosenblatt. Rosenblatt's perceptron was a single-layer neural network designed for image recognition. However, in 1969, Marvin Minsky and Seymour Papert published the book 'Perceptrons', proving that single-layer networks could not solve non-linear problems like XOR. This led to a period called the first AI winter. In the 1980s, the backpropagation algorithm was popularized by Geoffrey Hinton, Yann LeCun, and Yoshua Bengio, allowing deep multi-layer neural networks to be trained efficiently. The massive breakthrough came in 2012 with AlexNet, a deep convolutional neural network that won the ImageNet challenge by a massive margin, initiating the modern era of deep learning and generative artificial intelligence.\nDeep learning is a subset of machine learning based on artificial neural networks with representation learning. The history of deep learning began with ",
    "872": "Deep learning is a subset of machine learning that is based on artificial neural networks with representation learning. The history of deep learning began with the perceptron in 1957, invented by Frank Rosenblatt. Rosenblatt's perceptron was a single-layer neural network designed for image recognition. However, in 1969, Marvin Minsky and Seymour Papert published the book 'Perceptrons', proving that single-layer networks could not solve non-linear problems like XOR. This led to a period called the first AI winter. In the 1980s, the backpropagation algorithm was popularized by Geoffrey Hinton, Yann LeCun, and Yoshua Bengio, allowing deep multi-layer neural networks to be trained efficiently. The massive breakthrough came in 2012 with AlexNet, a deep convolutional neural network that won the ImageNet challenge by a massive margin, initiating the modern era of deep learning and generative artificial intelligence.\nDeep learning is a subset of machine learning based on artificial neural networks with representation learning. The history of deep learning began with Rosenblatt's ",
    "873": "Deep learning is a subset of machine learning that is based on artificial neural networks with representation learning. The history of deep learning began with the perceptron in 1957, invented by Frank Rosenblatt. Rosenblatt's perceptron was a single-layer neural network designed for image recognition. However, in 1969, Marvin Minsky and Seymour Papert published the book 'Perceptrons', proving that single-layer networks could not solve non-linear problems like XOR. This led to a period called the first AI winter. In the 1980s, the backpropagation algorithm was popularized by Geoffrey Hinton, Yann LeCun, and Yoshua Bengio, allowing deep multi-layer neural networks to be trained efficiently. The massive breakthrough came in 2012 with AlexNet, a deep convolutional neural network that won the ImageNet challenge by a massive margin, initiating the modern era of deep learning and generative artificial intelligence.\nDeep learning is a subset of machine learning based on artificial neural networks with representation learning. The history of deep learning began with Rosenblatt's perceptron in 1957",
    "874": "Deep learning is a subset of machine learning that is based on artificial neural networks with representation learning. The history of deep learning began with the perceptron in 1957, invented by Frank Rosenblatt. Rosenblatt's perceptron was a single-layer neural network designed for image recognition. However, in 1969, Marvin Minsky and Seymour Papert published the book 'Perceptrons', proving that single-layer networks could not solve non-linear problems like XOR. This led to a period called the first AI winter. In the 1980s, the backpropagation algorithm was popularized by Geoffrey Hinton, Yann LeCun, and Yoshua Bengio, allowing deep multi-layer neural networks to be trained efficiently. The massive breakthrough came in 2012 with AlexNet, a deep convolutional neural network that won the ImageNet challenge by a massive margin, initiating the modern era of deep learning and generative artificial intelligence.\nDeep learning is a subset of machine learning based on artificial neural networks with representation learning. The history of deep learning began with Rosenblatt's perceptron in 1957. ",
    "875": "Deep learning is a subset of machine learning that is based on artificial neural networks with representation learning. The history of deep learning began with the perceptron in 1957, invented by Frank Rosenblatt. Rosenblatt's perceptron was a single-layer neural network designed for image recognition. However, in 1969, Marvin Minsky and Seymour Papert published the book 'Perceptrons', proving that single-layer networks could not solve non-linear problems like XOR. This led to a period called the first AI winter. In the 1980s, the backpropagation algorithm was popularized by Geoffrey Hinton, Yann LeCun, and Yoshua Bengio, allowing deep multi-layer neural networks to be trained efficiently. The massive breakthrough came in 2012 with AlexNet, a deep convolutional neural network that won the ImageNet challenge by a massive margin, initiating the modern era of deep learning and generative artificial intelligence.\nDeep learning is a subset of machine learning based on artificial neural networks with representation learning. The history of deep learning began with Rosenblatt's perceptron in 1957. M",
    "876": "Deep learning is a subset of machine learning that is based on artificial neural networks with representation learning. The history of deep learning began with the perceptron in 1957, invented by Frank Rosenblatt. Rosenblatt's perceptron was a single-layer neural network designed for image recognition. However, in 1969, Marvin Minsky and Seymour Papert published the book 'Perceptrons', proving that single-layer networks could not solve non-linear problems like XOR. This led to a period called the first AI winter. In the 1980s, the backpropagation algorithm was popularized by Geoffrey Hinton, Yann LeCun, and Yoshua Bengio, allowing deep multi-layer neural networks to be trained efficiently. The massive breakthrough came in 2012 with AlexNet, a deep convolutional neural network that won the ImageNet challenge by a massive margin, initiating the modern era of deep learning and generative artificial intelligence.\nDeep learning is a subset of machine learning based on artificial neural networks with representation learning. The history of deep learning began with Rosenblatt's perceptron in 1957. Marvin Minsky and Seymour Papert ",
    "877": "Deep learning is a subset of machine learning that is based on artificial neural networks with representation learning. The history of deep learning began with the perceptron in 1957, invented by Frank Rosenblatt. Rosenblatt's perceptron was a single-layer neural network designed for image recognition. However, in 1969, Marvin Minsky and Seymour Papert published the book 'Perceptrons', proving that single-layer networks could not solve non-linear problems like XOR. This led to a period called the first AI winter. In the 1980s, the backpropagation algorithm was popularized by Geoffrey Hinton, Yann LeCun, and Yoshua Bengio, allowing deep multi-layer neural networks to be trained efficiently. The massive breakthrough came in 2012 with AlexNet, a deep convolutional neural network that won the ImageNet challenge by a massive margin, initiating the modern era of deep learning and generative artificial intelligence.\nDeep learning is a subset of machine learning based on artificial neural networks with representation learning. The history of deep learning began with Rosenblatt's perceptron in 1957. Marvin Minsky and Seymour Papert pro",
    "878": "Deep learning is a subset of machine learning that is based on artificial neural networks with representation learning. The history of deep learning began with the perceptron in 1957, invented by Frank Rosenblatt. Rosenblatt's perceptron was a single-layer neural network designed for image recognition. However, in 1969, Marvin Minsky and Seymour Papert published the book 'Perceptrons', proving that single-layer networks could not solve non-linear problems like XOR. This led to a period called the first AI winter. In the 1980s, the backpropagation algorithm was popularized by Geoffrey Hinton, Yann LeCun, and Yoshua Bengio, allowing deep multi-layer neural networks to be trained efficiently. The massive breakthrough came in 2012 with AlexNet, a deep convolutional neural network that won the ImageNet challenge by a massive margin, initiating the modern era of deep learning and generative artificial intelligence.\nDeep learning is a subset of machine learning based on artificial neural networks with representation learning. The history of deep learning began with Rosenblatt's perceptron in 1957. Marvin Minsky and Seymour Papert prov",
    "879": "Deep learning is a subset of machine learning that is based on artificial neural networks with representation learning. The history of deep learning began with the perceptron in 1957, invented by Frank Rosenblatt. Rosenblatt's perceptron was a single-layer neural network designed for image recognition. However, in 1969, Marvin Minsky and Seymour Papert published the book 'Perceptrons', proving that single-layer networks could not solve non-linear problems like XOR. This led to a period called the first AI winter. In the 1980s, the backpropagation algorithm was popularized by Geoffrey Hinton, Yann LeCun, and Yoshua Bengio, allowing deep multi-layer neural networks to be trained efficiently. The massive breakthrough came in 2012 with AlexNet, a deep convolutional neural network that won the ImageNet challenge by a massive margin, initiating the modern era of deep learning and generative artificial intelligence.\nDeep learning is a subset of machine learning based on artificial neural networks with representation learning. The history of deep learning began with Rosenblatt's perceptron in 1957. Marvin Minsky and Seymour Papert proved that ",
    "880": "Deep learning is a subset of machine learning that is based on artificial neural networks with representation learning. The history of deep learning began with the perceptron in 1957, invented by Frank Rosenblatt. Rosenblatt's perceptron was a single-layer neural network designed for image recognition. However, in 1969, Marvin Minsky and Seymour Papert published the book 'Perceptrons', proving that single-layer networks could not solve non-linear problems like XOR. This led to a period called the first AI winter. In the 1980s, the backpropagation algorithm was popularized by Geoffrey Hinton, Yann LeCun, and Yoshua Bengio, allowing deep multi-layer neural networks to be trained efficiently. The massive breakthrough came in 2012 with AlexNet, a deep convolutional neural network that won the ImageNet challenge by a massive margin, initiating the modern era of deep learning and generative artificial intelligence.\nDeep learning is a subset of machine learning based on artificial neural networks with representation learning. The history of deep learning began with Rosenblatt's perceptron in 1957. Marvin Minsky and Seymour Papert proved that single-layer networks could not solve non-linear problems like XOR",
    "881": "Deep learning is a subset of machine learning that is based on artificial neural networks with representation learning. The history of deep learning began with the perceptron in 1957, invented by Frank Rosenblatt. Rosenblatt's perceptron was a single-layer neural network designed for image recognition. However, in 1969, Marvin Minsky and Seymour Papert published the book 'Perceptrons', proving that single-layer networks could not solve non-linear problems like XOR. This led to a period called the first AI winter. In the 1980s, the backpropagation algorithm was popularized by Geoffrey Hinton, Yann LeCun, and Yoshua Bengio, allowing deep multi-layer neural networks to be trained efficiently. The massive breakthrough came in 2012 with AlexNet, a deep convolutional neural network that won the ImageNet challenge by a massive margin, initiating the modern era of deep learning and generative artificial intelligence.\nDeep learning is a subset of machine learning based on artificial neural networks with representation learning. The history of deep learning began with Rosenblatt's perceptron in 1957. Marvin Minsky and Seymour Papert proved that single-layer networks could not solve non-linear problems like XOR ",
    "882": "Deep learning is a subset of machine learning that is based on artificial neural networks with representation learning. The history of deep learning began with the perceptron in 1957, invented by Frank Rosenblatt. Rosenblatt's perceptron was a single-layer neural network designed for image recognition. However, in 1969, Marvin Minsky and Seymour Papert published the book 'Perceptrons', proving that single-layer networks could not solve non-linear problems like XOR. This led to a period called the first AI winter. In the 1980s, the backpropagation algorithm was popularized by Geoffrey Hinton, Yann LeCun, and Yoshua Bengio, allowing deep multi-layer neural networks to be trained efficiently. The massive breakthrough came in 2012 with AlexNet, a deep convolutional neural network that won the ImageNet challenge by a massive margin, initiating the modern era of deep learning and generative artificial intelligence.\nDeep learning is a subset of machine learning based on artificial neural networks with representation learning. The history of deep learning began with Rosenblatt's perceptron in 1957. Marvin Minsky and Seymour Papert proved that single-layer networks could not solve non-linear problems like XOR in 1969",
    "883": "Deep learning is a subset of machine learning that is based on artificial neural networks with representation learning. The history of deep learning began with the perceptron in 1957, invented by Frank Rosenblatt. Rosenblatt's perceptron was a single-layer neural network designed for image recognition. However, in 1969, Marvin Minsky and Seymour Papert published the book 'Perceptrons', proving that single-layer networks could not solve non-linear problems like XOR. This led to a period called the first AI winter. In the 1980s, the backpropagation algorithm was popularized by Geoffrey Hinton, Yann LeCun, and Yoshua Bengio, allowing deep multi-layer neural networks to be trained efficiently. The massive breakthrough came in 2012 with AlexNet, a deep convolutional neural network that won the ImageNet challenge by a massive margin, initiating the modern era of deep learning and generative artificial intelligence.\nDeep learning is a subset of machine learning based on artificial neural networks with representation learning. The history of deep learning began with Rosenblatt's perceptron in 1957. Marvin Minsky and Seymour Papert proved that single-layer networks could not solve non-linear problems like XOR in 1969. In the 1980s, the backpropagation algorithm was popularized by ",
    "884": "Deep learning is a subset of machine learning that is based on artificial neural networks with representation learning. The history of deep learning began with the perceptron in 1957, invented by Frank Rosenblatt. Rosenblatt's perceptron was a single-layer neural network designed for image recognition. However, in 1969, Marvin Minsky and Seymour Papert published the book 'Perceptrons', proving that single-layer networks could not solve non-linear problems like XOR. This led to a period called the first AI winter. In the 1980s, the backpropagation algorithm was popularized by Geoffrey Hinton, Yann LeCun, and Yoshua Bengio, allowing deep multi-layer neural networks to be trained efficiently. The massive breakthrough came in 2012 with AlexNet, a deep convolutional neural network that won the ImageNet challenge by a massive margin, initiating the modern era of deep learning and generative artificial intelligence.\nDeep learning is a subset of machine learning based on artificial neural networks with representation learning. The history of deep learning began with Rosenblatt's perceptron in 1957. Marvin Minsky and Seymour Papert proved that single-layer networks could not solve non-linear problems like XOR in 1969. In the 1980s, the backpropagation algorithm was popularized by Hinton, ",
    "885": "Deep learning is a subset of machine learning that is based on artificial neural networks with representation learning. The history of deep learning began with the perceptron in 1957, invented by Frank Rosenblatt. Rosenblatt's perceptron was a single-layer neural network designed for image recognition. However, in 1969, Marvin Minsky and Seymour Papert published the book 'Perceptrons', proving that single-layer networks could not solve non-linear problems like XOR. This led to a period called the first AI winter. In the 1980s, the backpropagation algorithm was popularized by Geoffrey Hinton, Yann LeCun, and Yoshua Bengio, allowing deep multi-layer neural networks to be trained efficiently. The massive breakthrough came in 2012 with AlexNet, a deep convolutional neural network that won the ImageNet challenge by a massive margin, initiating the modern era of deep learning and generative artificial intelligence.\nDeep learning is a subset of machine learning based on artificial neural networks with representation learning. The history of deep learning began with Rosenblatt's perceptron in 1957. Marvin Minsky and Seymour Papert proved that single-layer networks could not solve non-linear problems like XOR in 1969. In the 1980s, the backpropagation algorithm was popularized by Hinton, LeCun, and ",
    "886": "Deep learning is a subset of machine learning that is based on artificial neural networks with representation learning. The history of deep learning began with the perceptron in 1957, invented by Frank Rosenblatt. Rosenblatt's perceptron was a single-layer neural network designed for image recognition. However, in 1969, Marvin Minsky and Seymour Papert published the book 'Perceptrons', proving that single-layer networks could not solve non-linear problems like XOR. This led to a period called the first AI winter. In the 1980s, the backpropagation algorithm was popularized by Geoffrey Hinton, Yann LeCun, and Yoshua Bengio, allowing deep multi-layer neural networks to be trained efficiently. The massive breakthrough came in 2012 with AlexNet, a deep convolutional neural network that won the ImageNet challenge by a massive margin, initiating the modern era of deep learning and generative artificial intelligence.\nDeep learning is a subset of machine learning based on artificial neural networks with representation learning. The history of deep learning began with Rosenblatt's perceptron in 1957. Marvin Minsky and Seymour Papert proved that single-layer networks could not solve non-linear problems like XOR in 1969. In the 1980s, the backpropagation algorithm was popularized by Hinton, LeCun, and Bengio, allowing deep multi-layer n",
    "887": "Deep learning is a subset of machine learning that is based on artificial neural networks with representation learning. The history of deep learning began with the perceptron in 1957, invented by Frank Rosenblatt. Rosenblatt's perceptron was a single-layer neural network designed for image recognition. However, in 1969, Marvin Minsky and Seymour Papert published the book 'Perceptrons', proving that single-layer networks could not solve non-linear problems like XOR. This led to a period called the first AI winter. In the 1980s, the backpropagation algorithm was popularized by Geoffrey Hinton, Yann LeCun, and Yoshua Bengio, allowing deep multi-layer neural networks to be trained efficiently. The massive breakthrough came in 2012 with AlexNet, a deep convolutional neural network that won the ImageNet challenge by a massive margin, initiating the modern era of deep learning and generative artificial intelligence.\nDeep learning is a subset of machine learning based on artificial neural networks with representation learning. The history of deep learning began with Rosenblatt's perceptron in 1957. Marvin Minsky and Seymour Papert proved that single-layer networks could not solve non-linear problems like XOR in 1969. In the 1980s, the backpropagation algorithm was popularized by Hinton, LeCun, and Bengio, allowing deep multi-layer networks to be tra",
    "888": "Deep learning is a subset of machine learning that is based on artificial neural networks with representation learning. The history of deep learning began with the perceptron in 1957, invented by Frank Rosenblatt. Rosenblatt's perceptron was a single-layer neural network designed for image recognition. However, in 1969, Marvin Minsky and Seymour Papert published the book 'Perceptrons', proving that single-layer networks could not solve non-linear problems like XOR. This led to a period called the first AI winter. In the 1980s, the backpropagation algorithm was popularized by Geoffrey Hinton, Yann LeCun, and Yoshua Bengio, allowing deep multi-layer neural networks to be trained efficiently. The massive breakthrough came in 2012 with AlexNet, a deep convolutional neural network that won the ImageNet challenge by a massive margin, initiating the modern era of deep learning and generative artificial intelligence.\nDeep learning is a subset of machine learning based on artificial neural networks with representation learning. The history of deep learning began with Rosenblatt's perceptron in 1957. Marvin Minsky and Seymour Papert proved that single-layer networks could not solve non-linear problems like XOR in 1969. In the 1980s, the backpropagation algorithm was popularized by Hinton, LeCun, and Bengio, allowing deep multi-layer networks to be traine",
    "889": "Deep learning is a subset of machine learning that is based on artificial neural networks with representation learning. The history of deep learning began with the perceptron in 1957, invented by Frank Rosenblatt. Rosenblatt's perceptron was a single-layer neural network designed for image recognition. However, in 1969, Marvin Minsky and Seymour Papert published the book 'Perceptrons', proving that single-layer networks could not solve non-linear problems like XOR. This led to a period called the first AI winter. In the 1980s, the backpropagation algorithm was popularized by Geoffrey Hinton, Yann LeCun, and Yoshua Bengio, allowing deep multi-layer neural networks to be trained efficiently. The massive breakthrough came in 2012 with AlexNet, a deep convolutional neural network that won the ImageNet challenge by a massive margin, initiating the modern era of deep learning and generative artificial intelligence.\nDeep learning is a subset of machine learning based on artificial neural networks with representation learning. The history of deep learning began with Rosenblatt's perceptron in 1957. Marvin Minsky and Seymour Papert proved that single-layer networks could not solve non-linear problems like XOR in 1969. In the 1980s, the backpropagation algorithm was popularized by Hinton, LeCun, and Bengio, allowing deep multi-layer networks to be trained",
    "890": "Deep learning is a subset of machine learning that is based on artificial neural networks with representation learning. The history of deep learning began with the perceptron in 1957, invented by Frank Rosenblatt. Rosenblatt's perceptron was a single-layer neural network designed for image recognition. However, in 1969, Marvin Minsky and Seymour Papert published the book 'Perceptrons', proving that single-layer networks could not solve non-linear problems like XOR. This led to a period called the first AI winter. In the 1980s, the backpropagation algorithm was popularized by Geoffrey Hinton, Yann LeCun, and Yoshua Bengio, allowing deep multi-layer neural networks to be trained efficiently. The massive breakthrough came in 2012 with AlexNet, a deep convolutional neural network that won the ImageNet challenge by a massive margin, initiating the modern era of deep learning and generative artificial intelligence.\nDeep learning is a subset of machine learning based on artificial neural networks with representation learning. The history of deep learning began with Rosenblatt's perceptron in 1957. Marvin Minsky and Seymour Papert proved that single-layer networks could not solve non-linear problems like XOR in 1969. In the 1980s, the backpropagation algorithm was popularized by Hinton, LeCun, and Bengio, allowing deep multi-layer networks to be trained. In ",
    "891": "Deep learning is a subset of machine learning that is based on artificial neural networks with representation learning. The history of deep learning began with the perceptron in 1957, invented by Frank Rosenblatt. Rosenblatt's perceptron was a single-layer neural network designed for image recognition. However, in 1969, Marvin Minsky and Seymour Papert published the book 'Perceptrons', proving that single-layer networks could not solve non-linear problems like XOR. This led to a period called the first AI winter. In the 1980s, the backpropagation algorithm was popularized by Geoffrey Hinton, Yann LeCun, and Yoshua Bengio, allowing deep multi-layer neural networks to be trained efficiently. The massive breakthrough came in 2012 with AlexNet, a deep convolutional neural network that won the ImageNet challenge by a massive margin, initiating the modern era of deep learning and generative artificial intelligence.\nDeep learning is a subset of machine learning based on artificial neural networks with representation learning. The history of deep learning began with Rosenblatt's perceptron in 1957. Marvin Minsky and Seymour Papert proved that single-layer networks could not solve non-linear problems like XOR in 1969. In the 1980s, the backpropagation algorithm was popularized by Hinton, LeCun, and Bengio, allowing deep multi-layer networks to be trained. In 2012",
    "892": "Deep learning is a subset of machine learning that is based on artificial neural networks with representation learning. The history of deep learning began with the perceptron in 1957, invented by Frank Rosenblatt. Rosenblatt's perceptron was a single-layer neural network designed for image recognition. However, in 1969, Marvin Minsky and Seymour Papert published the book 'Perceptrons', proving that single-layer networks could not solve non-linear problems like XOR. This led to a period called the first AI winter. In the 1980s, the backpropagation algorithm was popularized by Geoffrey Hinton, Yann LeCun, and Yoshua Bengio, allowing deep multi-layer neural networks to be trained efficiently. The massive breakthrough came in 2012 with AlexNet, a deep convolutional neural network that won the ImageNet challenge by a massive margin, initiating the modern era of deep learning and generative artificial intelligence.\nDeep learning is a subset of machine learning based on artificial neural networks with representation learning. The history of deep learning began with Rosenblatt's perceptron in 1957. Marvin Minsky and Seymour Papert proved that single-layer networks could not solve non-linear problems like XOR in 1969. In the 1980s, the backpropagation algorithm was popularized by Hinton, LeCun, and Bengio, allowing deep multi-layer networks to be trained. In 2012, ",
    "893": "Deep learning is a subset of machine learning that is based on artificial neural networks with representation learning. The history of deep learning began with the perceptron in 1957, invented by Frank Rosenblatt. Rosenblatt's perceptron was a single-layer neural network designed for image recognition. However, in 1969, Marvin Minsky and Seymour Papert published the book 'Perceptrons', proving that single-layer networks could not solve non-linear problems like XOR. This led to a period called the first AI winter. In the 1980s, the backpropagation algorithm was popularized by Geoffrey Hinton, Yann LeCun, and Yoshua Bengio, allowing deep multi-layer neural networks to be trained efficiently. The massive breakthrough came in 2012 with AlexNet, a deep convolutional neural network that won the ImageNet challenge by a massive margin, initiating the modern era of deep learning and generative artificial intelligence.\nDeep learning is a subset of machine learning based on artificial neural networks with representation learning. The history of deep learning began with Rosenblatt's perceptron in 1957. Marvin Minsky and Seymour Papert proved that single-layer networks could not solve non-linear problems like XOR in 1969. In the 1980s, the backpropagation algorithm was popularized by Hinton, LeCun, and Bengio, allowing deep multi-layer networks to be trained. In 2012, Alex",
    "894": "Deep learning is a subset of machine learning that is based on artificial neural networks with representation learning. The history of deep learning began with the perceptron in 1957, invented by Frank Rosenblatt. Rosenblatt's perceptron was a single-layer neural network designed for image recognition. However, in 1969, Marvin Minsky and Seymour Papert published the book 'Perceptrons', proving that single-layer networks could not solve non-linear problems like XOR. This led to a period called the first AI winter. In the 1980s, the backpropagation algorithm was popularized by Geoffrey Hinton, Yann LeCun, and Yoshua Bengio, allowing deep multi-layer neural networks to be trained efficiently. The massive breakthrough came in 2012 with AlexNet, a deep convolutional neural network that won the ImageNet challenge by a massive margin, initiating the modern era of deep learning and generative artificial intelligence.\nDeep learning is a subset of machine learning based on artificial neural networks with representation learning. The history of deep learning began with Rosenblatt's perceptron in 1957. Marvin Minsky and Seymour Papert proved that single-layer networks could not solve non-linear problems like XOR in 1969. In the 1980s, the backpropagation algorithm was popularized by Hinton, LeCun, and Bengio, allowing deep multi-layer networks to be trained. In 2012, AlexNet ",
    "895": "Deep learning is a subset of machine learning that is based on artificial neural networks with representation learning. The history of deep learning began with the perceptron in 1957, invented by Frank Rosenblatt. Rosenblatt's perceptron was a single-layer neural network designed for image recognition. However, in 1969, Marvin Minsky and Seymour Papert published the book 'Perceptrons', proving that single-layer networks could not solve non-linear problems like XOR. This led to a period called the first AI winter. In the 1980s, the backpropagation algorithm was popularized by Geoffrey Hinton, Yann LeCun, and Yoshua Bengio, allowing deep multi-layer neural networks to be trained efficiently. The massive breakthrough came in 2012 with AlexNet, a deep convolutional neural network that won the ImageNet challenge by a massive margin, initiating the modern era of deep learning and generative artificial intelligence.\nDeep learning is a subset of machine learning based on artificial neural networks with representation learning. The history of deep learning began with Rosenblatt's perceptron in 1957. Marvin Minsky and Seymour Papert proved that single-layer networks could not solve non-linear problems like XOR in 1969. In the 1980s, the backpropagation algorithm was popularized by Hinton, LeCun, and Bengio, allowing deep multi-layer networks to be trained. In 2012, AlexNet won the ImageNet challenge by a ",
    "896": "Deep learning is a subset of machine learning that is based on artificial neural networks with representation learning. The history of deep learning began with the perceptron in 1957, invented by Frank Rosenblatt. Rosenblatt's perceptron was a single-layer neural network designed for image recognition. However, in 1969, Marvin Minsky and Seymour Papert published the book 'Perceptrons', proving that single-layer networks could not solve non-linear problems like XOR. This led to a period called the first AI winter. In the 1980s, the backpropagation algorithm was popularized by Geoffrey Hinton, Yann LeCun, and Yoshua Bengio, allowing deep multi-layer neural networks to be trained efficiently. The massive breakthrough came in 2012 with AlexNet, a deep convolutional neural network that won the ImageNet challenge by a massive margin, initiating the modern era of deep learning and generative artificial intelligence.\nDeep learning is a subset of machine learning based on artificial neural networks with representation learning. The history of deep learning began with Rosenblatt's perceptron in 1957. Marvin Minsky and Seymour Papert proved that single-layer networks could not solve non-linear problems like XOR in 1969. In the 1980s, the backpropagation algorithm was popularized by Hinton, LeCun, and Bengio, allowing deep multi-layer networks to be trained. In 2012, AlexNet won the ImageNet challenge by a hu",
    "897": "Deep learning is a subset of machine learning that is based on artificial neural networks with representation learning. The history of deep learning began with the perceptron in 1957, invented by Frank Rosenblatt. Rosenblatt's perceptron was a single-layer neural network designed for image recognition. However, in 1969, Marvin Minsky and Seymour Papert published the book 'Perceptrons', proving that single-layer networks could not solve non-linear problems like XOR. This led to a period called the first AI winter. In the 1980s, the backpropagation algorithm was popularized by Geoffrey Hinton, Yann LeCun, and Yoshua Bengio, allowing deep multi-layer neural networks to be trained efficiently. The massive breakthrough came in 2012 with AlexNet, a deep convolutional neural network that won the ImageNet challenge by a massive margin, initiating the modern era of deep learning and generative artificial intelligence.\nDeep learning is a subset of machine learning based on artificial neural networks with representation learning. The history of deep learning began with Rosenblatt's perceptron in 1957. Marvin Minsky and Seymour Papert proved that single-layer networks could not solve non-linear problems like XOR in 1969. In the 1980s, the backpropagation algorithm was popularized by Hinton, LeCun, and Bengio, allowing deep multi-layer networks to be trained. In 2012, AlexNet won the ImageNet challenge by a huge ",
    "898": "Deep learning is a subset of machine learning that is based on artificial neural networks with representation learning. The history of deep learning began with the perceptron in 1957, invented by Frank Rosenblatt. Rosenblatt's perceptron was a single-layer neural network designed for image recognition. However, in 1969, Marvin Minsky and Seymour Papert published the book 'Perceptrons', proving that single-layer networks could not solve non-linear problems like XOR. This led to a period called the first AI winter. In the 1980s, the backpropagation algorithm was popularized by Geoffrey Hinton, Yann LeCun, and Yoshua Bengio, allowing deep multi-layer neural networks to be trained efficiently. The massive breakthrough came in 2012 with AlexNet, a deep convolutional neural network that won the ImageNet challenge by a massive margin, initiating the modern era of deep learning and generative artificial intelligence.\nDeep learning is a subset of machine learning based on artificial neural networks with representation learning. The history of deep learning began with Rosenblatt's perceptron in 1957. Marvin Minsky and Seymour Papert proved that single-layer networks could not solve non-linear problems like XOR in 1969. In the 1980s, the backpropagation algorithm was popularized by Hinton, LeCun, and Bengio, allowing deep multi-layer networks to be trained. In 2012, AlexNet won the ImageNet challenge by a huge margin",
    "899": "Deep learning is a subset of machine learning that is based on artificial neural networks with representation learning. The history of deep learning began with the perceptron in 1957, invented by Frank Rosenblatt. Rosenblatt's perceptron was a single-layer neural network designed for image recognition. However, in 1969, Marvin Minsky and Seymour Papert published the book 'Perceptrons', proving that single-layer networks could not solve non-linear problems like XOR. This led to a period called the first AI winter. In the 1980s, the backpropagation algorithm was popularized by Geoffrey Hinton, Yann LeCun, and Yoshua Bengio, allowing deep multi-layer neural networks to be trained efficiently. The massive breakthrough came in 2012 with AlexNet, a deep convolutional neural network that won the ImageNet challenge by a massive margin, initiating the modern era of deep learning and generative artificial intelligence.\nDeep learning is a subset of machine learning based on artificial neural networks with representation learning. The history of deep learning began with Rosenblatt's perceptron in 1957. Marvin Minsky and Seymour Papert proved that single-layer networks could not solve non-linear problems like XOR in 1969. In the 1980s, the backpropagation algorithm was popularized by Hinton, LeCun, and Bengio, allowing deep multi-layer networks to be trained. In 2012, AlexNet won the ImageNet challenge by a huge margin, st",
    "900": "Deep learning is a subset of machine learning that is based on artificial neural networks with representation learning. The history of deep learning began with the perceptron in 1957, invented by Frank Rosenblatt. Rosenblatt's perceptron was a single-layer neural network designed for image recognition. However, in 1969, Marvin Minsky and Seymour Papert published the book 'Perceptrons', proving that single-layer networks could not solve non-linear problems like XOR. This led to a period called the first AI winter. In the 1980s, the backpropagation algorithm was popularized by Geoffrey Hinton, Yann LeCun, and Yoshua Bengio, allowing deep multi-layer neural networks to be trained efficiently. The massive breakthrough came in 2012 with AlexNet, a deep convolutional neural network that won the ImageNet challenge by a massive margin, initiating the modern era of deep learning and generative artificial intelligence.\nDeep learning is a subset of machine learning based on artificial neural networks with representation learning. The history of deep learning began with Rosenblatt's perceptron in 1957. Marvin Minsky and Seymour Papert proved that single-layer networks could not solve non-linear problems like XOR in 1969. In the 1980s, the backpropagation algorithm was popularized by Hinton, LeCun, and Bengio, allowing deep multi-layer networks to be trained. In 2012, AlexNet won the ImageNet challenge by a huge margin, start",
    "901": "Deep learning is a subset of machine learning that is based on artificial neural networks with representation learning. The history of deep learning began with the perceptron in 1957, invented by Frank Rosenblatt. Rosenblatt's perceptron was a single-layer neural network designed for image recognition. However, in 1969, Marvin Minsky and Seymour Papert published the book 'Perceptrons', proving that single-layer networks could not solve non-linear problems like XOR. This led to a period called the first AI winter. In the 1980s, the backpropagation algorithm was popularized by Geoffrey Hinton, Yann LeCun, and Yoshua Bengio, allowing deep multi-layer neural networks to be trained efficiently. The massive breakthrough came in 2012 with AlexNet, a deep convolutional neural network that won the ImageNet challenge by a massive margin, initiating the modern era of deep learning and generative artificial intelligence.\nDeep learning is a subset of machine learning based on artificial neural networks with representation learning. The history of deep learning began with Rosenblatt's perceptron in 1957. Marvin Minsky and Seymour Papert proved that single-layer networks could not solve non-linear problems like XOR in 1969. In the 1980s, the backpropagation algorithm was popularized by Hinton, LeCun, and Bengio, allowing deep multi-layer networks to be trained. In 2012, AlexNet won the ImageNet challenge by a huge margin, starting the modern ",
    "902": "Deep learning is a subset of machine learning that is based on artificial neural networks with representation learning. The history of deep learning began with the perceptron in 1957, invented by Frank Rosenblatt. Rosenblatt's perceptron was a single-layer neural network designed for image recognition. However, in 1969, Marvin Minsky and Seymour Papert published the book 'Perceptrons', proving that single-layer networks could not solve non-linear problems like XOR. This led to a period called the first AI winter. In the 1980s, the backpropagation algorithm was popularized by Geoffrey Hinton, Yann LeCun, and Yoshua Bengio, allowing deep multi-layer neural networks to be trained efficiently. The massive breakthrough came in 2012 with AlexNet, a deep convolutional neural network that won the ImageNet challenge by a massive margin, initiating the modern era of deep learning and generative artificial intelligence.\nDeep learning is a subset of machine learning based on artificial neural networks with representation learning. The history of deep learning began with Rosenblatt's perceptron in 1957. Marvin Minsky and Seymour Papert proved that single-layer networks could not solve non-linear problems like XOR in 1969. In the 1980s, the backpropagation algorithm was popularized by Hinton, LeCun, and Bengio, allowing deep multi-layer networks to be trained. In 2012, AlexNet won the ImageNet challenge by a huge margin, starting the modern deep learning ",
    "903": "Deep learning is a subset of machine learning that is based on artificial neural networks with representation learning. The history of deep learning began with the perceptron in 1957, invented by Frank Rosenblatt. Rosenblatt's perceptron was a single-layer neural network designed for image recognition. However, in 1969, Marvin Minsky and Seymour Papert published the book 'Perceptrons', proving that single-layer networks could not solve non-linear problems like XOR. This led to a period called the first AI winter. In the 1980s, the backpropagation algorithm was popularized by Geoffrey Hinton, Yann LeCun, and Yoshua Bengio, allowing deep multi-layer neural networks to be trained efficiently. The massive breakthrough came in 2012 with AlexNet, a deep convolutional neural network that won the ImageNet challenge by a massive margin, initiating the modern era of deep learning and generative artificial intelligence.\nDeep learning is a subset of machine learning based on artificial neural networks with representation learning. The history of deep learning began with Rosenblatt's perceptron in 1957. Marvin Minsky and Seymour Papert proved that single-layer networks could not solve non-linear problems like XOR in 1969. In the 1980s, the backpropagation algorithm was popularized by Hinton, LeCun, and Bengio, allowing deep multi-layer networks to be trained. In 2012, AlexNet won the ImageNet challenge by a huge margin, starting the modern deep learning er",
    "904": "Deep learning is a subset of machine learning that is based on artificial neural networks with representation learning. The history of deep learning began with the perceptron in 1957, invented by Frank Rosenblatt. Rosenblatt's perceptron was a single-layer neural network designed for image recognition. However, in 1969, Marvin Minsky and Seymour Papert published the book 'Perceptrons', proving that single-layer networks could not solve non-linear problems like XOR. This led to a period called the first AI winter. In the 1980s, the backpropagation algorithm was popularized by Geoffrey Hinton, Yann LeCun, and Yoshua Bengio, allowing deep multi-layer neural networks to be trained efficiently. The massive breakthrough came in 2012 with AlexNet, a deep convolutional neural network that won the ImageNet challenge by a massive margin, initiating the modern era of deep learning and generative artificial intelligence.\nDeep learning is a subset of machine learning based on artificial neural networks with representation learning. The history of deep learning began with Rosenblatt's perceptron in 1957. Marvin Minsky and Seymour Papert proved that single-layer networks could not solve non-linear problems like XOR in 1969. In the 1980s, the backpropagation algorithm was popularized by Hinton, LeCun, and Bengio, allowing deep multi-layer networks to be trained. In 2012, AlexNet won the ImageNet challenge by a huge margin, starting the modern deep learning era",
    "905": "Deep learning is a subset of machine learning that is based on artificial neural networks with representation learning. The history of deep learning began with the perceptron in 1957, invented by Frank Rosenblatt. Rosenblatt's perceptron was a single-layer neural network designed for image recognition. However, in 1969, Marvin Minsky and Seymour Papert published the book 'Perceptrons', proving that single-layer networks could not solve non-linear problems like XOR. This led to a period called the first AI winter. In the 1980s, the backpropagation algorithm was popularized by Geoffrey Hinton, Yann LeCun, and Yoshua Bengio, allowing deep multi-layer neural networks to be trained efficiently. The massive breakthrough came in 2012 with AlexNet, a deep convolutional neural network that won the ImageNet challenge by a massive margin, initiating the modern era of deep learning and generative artificial intelligence.\nDeep learning is a subset of machine learning based on artificial neural networks with representation learning. The history of deep learning began with Rosenblatt's perceptron in 1957. Marvin Minsky and Seymour Papert proved that single-layer networks could not solve non-linear problems like XOR in 1969. In the 1980s, the backpropagation algorithm was popularized by Hinton, LeCun, and Bengio, allowing deep multi-layer networks to be trained. In 2012, AlexNet won the ImageNet challenge by a huge margin, starting the modern deep learning era.\n",
    "906": "Deep learning is a subset of machine learning that is based on artificial neural networks with representation learning. The history of deep learning began with the perceptron in 1957, invented by Frank Rosenblatt. Rosenblatt's perceptron was a single-layer neural network designed for image recognition. However, in 1969, Marvin Minsky and Seymour Papert published the book 'Perceptrons', proving that single-layer networks could not solve non-linear problems like XOR. This led to a period called the first AI winter. In the 1980s, the backpropagation algorithm was popularized by Geoffrey Hinton, Yann LeCun, and Yoshua Bengio, allowing deep multi-layer neural networks to be trained efficiently. The massive breakthrough came in 2012 with AlexNet, a deep convolutional neural network that won the ImageNet challenge by a massive margin, initiating the modern era of deep learning and generative artificial intelligence.\nDeep learning is a subset of machine learning based on artificial neural networks with representation learning. The history of deep learning began with Rosenblatt's perceptron in 1957. Marvin Minsky and Seymour Papert proved that single-layer networks could not solve non-linear problems like XOR in 1969. In the 1980s, the backpropagation algorithm was popularized by Hinton, LeCun, and Bengio, allowing deep multi-layer networks to be trained. In 2012, AlexNet won the ImageNet challenge by a huge margin, starting the modern deep learning era.\nP",
    "907": "Deep learning is a subset of machine learning that is based on artificial neural networks with representation learning. The history of deep learning began with the perceptron in 1957, invented by Frank Rosenblatt. Rosenblatt's perceptron was a single-layer neural network designed for image recognition. However, in 1969, Marvin Minsky and Seymour Papert published the book 'Perceptrons', proving that single-layer networks could not solve non-linear problems like XOR. This led to a period called the first AI winter. In the 1980s, the backpropagation algorithm was popularized by Geoffrey Hinton, Yann LeCun, and Yoshua Bengio, allowing deep multi-layer neural networks to be trained efficiently. The massive breakthrough came in 2012 with AlexNet, a deep convolutional neural network that won the ImageNet challenge by a massive margin, initiating the modern era of deep learning and generative artificial intelligence.\nDeep learning is a subset of machine learning based on artificial neural networks with representation learning. The history of deep learning began with Rosenblatt's perceptron in 1957. Marvin Minsky and Seymour Papert proved that single-layer networks could not solve non-linear problems like XOR in 1969. In the 1980s, the backpropagation algorithm was popularized by Hinton, LeCun, and Bengio, allowing deep multi-layer networks to be trained. In 2012, AlexNet won the ImageNet challenge by a huge margin, starting the modern deep learning era.\nPro",
    "908": "Deep learning is a subset of machine learning that is based on artificial neural networks with representation learning. The history of deep learning began with the perceptron in 1957, invented by Frank Rosenblatt. Rosenblatt's perceptron was a single-layer neural network designed for image recognition. However, in 1969, Marvin Minsky and Seymour Papert published the book 'Perceptrons', proving that single-layer networks could not solve non-linear problems like XOR. This led to a period called the first AI winter. In the 1980s, the backpropagation algorithm was popularized by Geoffrey Hinton, Yann LeCun, and Yoshua Bengio, allowing deep multi-layer neural networks to be trained efficiently. The massive breakthrough came in 2012 with AlexNet, a deep convolutional neural network that won the ImageNet challenge by a massive margin, initiating the modern era of deep learning and generative artificial intelligence.\nDeep learning is a subset of machine learning based on artificial neural networks with representation learning. The history of deep learning began with Rosenblatt's perceptron in 1957. Marvin Minsky and Seymour Papert proved that single-layer networks could not solve non-linear problems like XOR in 1969. In the 1980s, the backpropagation algorithm was popularized by Hinton, LeCun, and Bengio, allowing deep multi-layer networks to be trained. In 2012, AlexNet won the ImageNet challenge by a huge margin, starting the modern deep learning era.\nProgramming language",
    "909": "Deep learning is a subset of machine learning that is based on artificial neural networks with representation learning. The history of deep learning began with the perceptron in 1957, invented by Frank Rosenblatt. Rosenblatt's perceptron was a single-layer neural network designed for image recognition. However, in 1969, Marvin Minsky and Seymour Papert published the book 'Perceptrons', proving that single-layer networks could not solve non-linear problems like XOR. This led to a period called the first AI winter. In the 1980s, the backpropagation algorithm was popularized by Geoffrey Hinton, Yann LeCun, and Yoshua Bengio, allowing deep multi-layer neural networks to be trained efficiently. The massive breakthrough came in 2012 with AlexNet, a deep convolutional neural network that won the ImageNet challenge by a massive margin, initiating the modern era of deep learning and generative artificial intelligence.\nDeep learning is a subset of machine learning based on artificial neural networks with representation learning. The history of deep learning began with Rosenblatt's perceptron in 1957. Marvin Minsky and Seymour Papert proved that single-layer networks could not solve non-linear problems like XOR in 1969. In the 1980s, the backpropagation algorithm was popularized by Hinton, LeCun, and Bengio, allowing deep multi-layer networks to be trained. In 2012, AlexNet won the ImageNet challenge by a huge margin, starting the modern deep learning era.\nProgramming languages ",
    "910": "Deep learning is a subset of machine learning that is based on artificial neural networks with representation learning. The history of deep learning began with the perceptron in 1957, invented by Frank Rosenblatt. Rosenblatt's perceptron was a single-layer neural network designed for image recognition. However, in 1969, Marvin Minsky and Seymour Papert published the book 'Perceptrons', proving that single-layer networks could not solve non-linear problems like XOR. This led to a period called the first AI winter. In the 1980s, the backpropagation algorithm was popularized by Geoffrey Hinton, Yann LeCun, and Yoshua Bengio, allowing deep multi-layer neural networks to be trained efficiently. The massive breakthrough came in 2012 with AlexNet, a deep convolutional neural network that won the ImageNet challenge by a massive margin, initiating the modern era of deep learning and generative artificial intelligence.\nDeep learning is a subset of machine learning based on artificial neural networks with representation learning. The history of deep learning began with Rosenblatt's perceptron in 1957. Marvin Minsky and Seymour Papert proved that single-layer networks could not solve non-linear problems like XOR in 1969. In the 1980s, the backpropagation algorithm was popularized by Hinton, LeCun, and Bengio, allowing deep multi-layer networks to be trained. In 2012, AlexNet won the ImageNet challenge by a huge margin, starting the modern deep learning era.\nProgramming languages ar",
    "911": "Deep learning is a subset of machine learning that is based on artificial neural networks with representation learning. The history of deep learning began with the perceptron in 1957, invented by Frank Rosenblatt. Rosenblatt's perceptron was a single-layer neural network designed for image recognition. However, in 1969, Marvin Minsky and Seymour Papert published the book 'Perceptrons', proving that single-layer networks could not solve non-linear problems like XOR. This led to a period called the first AI winter. In the 1980s, the backpropagation algorithm was popularized by Geoffrey Hinton, Yann LeCun, and Yoshua Bengio, allowing deep multi-layer neural networks to be trained efficiently. The massive breakthrough came in 2012 with AlexNet, a deep convolutional neural network that won the ImageNet challenge by a massive margin, initiating the modern era of deep learning and generative artificial intelligence.\nDeep learning is a subset of machine learning based on artificial neural networks with representation learning. The history of deep learning began with Rosenblatt's perceptron in 1957. Marvin Minsky and Seymour Papert proved that single-layer networks could not solve non-linear problems like XOR in 1969. In the 1980s, the backpropagation algorithm was popularized by Hinton, LeCun, and Bengio, allowing deep multi-layer networks to be trained. In 2012, AlexNet won the ImageNet challenge by a huge margin, starting the modern deep learning era.\nProgramming languages are ",
    "912": "Deep learning is a subset of machine learning that is based on artificial neural networks with representation learning. The history of deep learning began with the perceptron in 1957, invented by Frank Rosenblatt. Rosenblatt's perceptron was a single-layer neural network designed for image recognition. However, in 1969, Marvin Minsky and Seymour Papert published the book 'Perceptrons', proving that single-layer networks could not solve non-linear problems like XOR. This led to a period called the first AI winter. In the 1980s, the backpropagation algorithm was popularized by Geoffrey Hinton, Yann LeCun, and Yoshua Bengio, allowing deep multi-layer neural networks to be trained efficiently. The massive breakthrough came in 2012 with AlexNet, a deep convolutional neural network that won the ImageNet challenge by a massive margin, initiating the modern era of deep learning and generative artificial intelligence.\nDeep learning is a subset of machine learning based on artificial neural networks with representation learning. The history of deep learning began with Rosenblatt's perceptron in 1957. Marvin Minsky and Seymour Papert proved that single-layer networks could not solve non-linear problems like XOR in 1969. In the 1980s, the backpropagation algorithm was popularized by Hinton, LeCun, and Bengio, allowing deep multi-layer networks to be trained. In 2012, AlexNet won the ImageNet challenge by a huge margin, starting the modern deep learning era.\nProgramming languages are the ",
    "913": "Deep learning is a subset of machine learning that is based on artificial neural networks with representation learning. The history of deep learning began with the perceptron in 1957, invented by Frank Rosenblatt. Rosenblatt's perceptron was a single-layer neural network designed for image recognition. However, in 1969, Marvin Minsky and Seymour Papert published the book 'Perceptrons', proving that single-layer networks could not solve non-linear problems like XOR. This led to a period called the first AI winter. In the 1980s, the backpropagation algorithm was popularized by Geoffrey Hinton, Yann LeCun, and Yoshua Bengio, allowing deep multi-layer neural networks to be trained efficiently. The massive breakthrough came in 2012 with AlexNet, a deep convolutional neural network that won the ImageNet challenge by a massive margin, initiating the modern era of deep learning and generative artificial intelligence.\nDeep learning is a subset of machine learning based on artificial neural networks with representation learning. The history of deep learning began with Rosenblatt's perceptron in 1957. Marvin Minsky and Seymour Papert proved that single-layer networks could not solve non-linear problems like XOR in 1969. In the 1980s, the backpropagation algorithm was popularized by Hinton, LeCun, and Bengio, allowing deep multi-layer networks to be trained. In 2012, AlexNet won the ImageNet challenge by a huge margin, starting the modern deep learning era.\nProgramming languages are the pr",
    "914": "Deep learning is a subset of machine learning that is based on artificial neural networks with representation learning. The history of deep learning began with the perceptron in 1957, invented by Frank Rosenblatt. Rosenblatt's perceptron was a single-layer neural network designed for image recognition. However, in 1969, Marvin Minsky and Seymour Papert published the book 'Perceptrons', proving that single-layer networks could not solve non-linear problems like XOR. This led to a period called the first AI winter. In the 1980s, the backpropagation algorithm was popularized by Geoffrey Hinton, Yann LeCun, and Yoshua Bengio, allowing deep multi-layer neural networks to be trained efficiently. The massive breakthrough came in 2012 with AlexNet, a deep convolutional neural network that won the ImageNet challenge by a massive margin, initiating the modern era of deep learning and generative artificial intelligence.\nDeep learning is a subset of machine learning based on artificial neural networks with representation learning. The history of deep learning began with Rosenblatt's perceptron in 1957. Marvin Minsky and Seymour Papert proved that single-layer networks could not solve non-linear problems like XOR in 1969. In the 1980s, the backpropagation algorithm was popularized by Hinton, LeCun, and Bengio, allowing deep multi-layer networks to be trained. In 2012, AlexNet won the ImageNet challenge by a huge margin, starting the modern deep learning era.\nProgramming languages are the pri",
    "915": "Deep learning is a subset of machine learning that is based on artificial neural networks with representation learning. The history of deep learning began with the perceptron in 1957, invented by Frank Rosenblatt. Rosenblatt's perceptron was a single-layer neural network designed for image recognition. However, in 1969, Marvin Minsky and Seymour Papert published the book 'Perceptrons', proving that single-layer networks could not solve non-linear problems like XOR. This led to a period called the first AI winter. In the 1980s, the backpropagation algorithm was popularized by Geoffrey Hinton, Yann LeCun, and Yoshua Bengio, allowing deep multi-layer neural networks to be trained efficiently. The massive breakthrough came in 2012 with AlexNet, a deep convolutional neural network that won the ImageNet challenge by a massive margin, initiating the modern era of deep learning and generative artificial intelligence.\nDeep learning is a subset of machine learning based on artificial neural networks with representation learning. The history of deep learning began with Rosenblatt's perceptron in 1957. Marvin Minsky and Seymour Papert proved that single-layer networks could not solve non-linear problems like XOR in 1969. In the 1980s, the backpropagation algorithm was popularized by Hinton, LeCun, and Bengio, allowing deep multi-layer networks to be trained. In 2012, AlexNet won the ImageNet challenge by a huge margin, starting the modern deep learning era.\nProgramming languages are the primar",
    "916": "Deep learning is a subset of machine learning that is based on artificial neural networks with representation learning. The history of deep learning began with the perceptron in 1957, invented by Frank Rosenblatt. Rosenblatt's perceptron was a single-layer neural network designed for image recognition. However, in 1969, Marvin Minsky and Seymour Papert published the book 'Perceptrons', proving that single-layer networks could not solve non-linear problems like XOR. This led to a period called the first AI winter. In the 1980s, the backpropagation algorithm was popularized by Geoffrey Hinton, Yann LeCun, and Yoshua Bengio, allowing deep multi-layer neural networks to be trained efficiently. The massive breakthrough came in 2012 with AlexNet, a deep convolutional neural network that won the ImageNet challenge by a massive margin, initiating the modern era of deep learning and generative artificial intelligence.\nDeep learning is a subset of machine learning based on artificial neural networks with representation learning. The history of deep learning began with Rosenblatt's perceptron in 1957. Marvin Minsky and Seymour Papert proved that single-layer networks could not solve non-linear problems like XOR in 1969. In the 1980s, the backpropagation algorithm was popularized by Hinton, LeCun, and Bengio, allowing deep multi-layer networks to be trained. In 2012, AlexNet won the ImageNet challenge by a huge margin, starting the modern deep learning era.\nProgramming languages are the primary ",
    "917": "Deep learning is a subset of machine learning that is based on artificial neural networks with representation learning. The history of deep learning began with the perceptron in 1957, invented by Frank Rosenblatt. Rosenblatt's perceptron was a single-layer neural network designed for image recognition. However, in 1969, Marvin Minsky and Seymour Papert published the book 'Perceptrons', proving that single-layer networks could not solve non-linear problems like XOR. This led to a period called the first AI winter. In the 1980s, the backpropagation algorithm was popularized by Geoffrey Hinton, Yann LeCun, and Yoshua Bengio, allowing deep multi-layer neural networks to be trained efficiently. The massive breakthrough came in 2012 with AlexNet, a deep convolutional neural network that won the ImageNet challenge by a massive margin, initiating the modern era of deep learning and generative artificial intelligence.\nDeep learning is a subset of machine learning based on artificial neural networks with representation learning. The history of deep learning began with Rosenblatt's perceptron in 1957. Marvin Minsky and Seymour Papert proved that single-layer networks could not solve non-linear problems like XOR in 1969. In the 1980s, the backpropagation algorithm was popularized by Hinton, LeCun, and Bengio, allowing deep multi-layer networks to be trained. In 2012, AlexNet won the ImageNet challenge by a huge margin, starting the modern deep learning era.\nProgramming languages are the primary to",
    "918": "Deep learning is a subset of machine learning that is based on artificial neural networks with representation learning. The history of deep learning began with the perceptron in 1957, invented by Frank Rosenblatt. Rosenblatt's perceptron was a single-layer neural network designed for image recognition. However, in 1969, Marvin Minsky and Seymour Papert published the book 'Perceptrons', proving that single-layer networks could not solve non-linear problems like XOR. This led to a period called the first AI winter. In the 1980s, the backpropagation algorithm was popularized by Geoffrey Hinton, Yann LeCun, and Yoshua Bengio, allowing deep multi-layer neural networks to be trained efficiently. The massive breakthrough came in 2012 with AlexNet, a deep convolutional neural network that won the ImageNet challenge by a massive margin, initiating the modern era of deep learning and generative artificial intelligence.\nDeep learning is a subset of machine learning based on artificial neural networks with representation learning. The history of deep learning began with Rosenblatt's perceptron in 1957. Marvin Minsky and Seymour Papert proved that single-layer networks could not solve non-linear problems like XOR in 1969. In the 1980s, the backpropagation algorithm was popularized by Hinton, LeCun, and Bengio, allowing deep multi-layer networks to be trained. In 2012, AlexNet won the ImageNet challenge by a huge margin, starting the modern deep learning era.\nProgramming languages are the primary tool",
    "919": "Deep learning is a subset of machine learning that is based on artificial neural networks with representation learning. The history of deep learning began with the perceptron in 1957, invented by Frank Rosenblatt. Rosenblatt's perceptron was a single-layer neural network designed for image recognition. However, in 1969, Marvin Minsky and Seymour Papert published the book 'Perceptrons', proving that single-layer networks could not solve non-linear problems like XOR. This led to a period called the first AI winter. In the 1980s, the backpropagation algorithm was popularized by Geoffrey Hinton, Yann LeCun, and Yoshua Bengio, allowing deep multi-layer neural networks to be trained efficiently. The massive breakthrough came in 2012 with AlexNet, a deep convolutional neural network that won the ImageNet challenge by a massive margin, initiating the modern era of deep learning and generative artificial intelligence.\nDeep learning is a subset of machine learning based on artificial neural networks with representation learning. The history of deep learning began with Rosenblatt's perceptron in 1957. Marvin Minsky and Seymour Papert proved that single-layer networks could not solve non-linear problems like XOR in 1969. In the 1980s, the backpropagation algorithm was popularized by Hinton, LeCun, and Bengio, allowing deep multi-layer networks to be trained. In 2012, AlexNet won the ImageNet challenge by a huge margin, starting the modern deep learning era.\nProgramming languages are the primary tools ",
    "920": "Deep learning is a subset of machine learning that is based on artificial neural networks with representation learning. The history of deep learning began with the perceptron in 1957, invented by Frank Rosenblatt. Rosenblatt's perceptron was a single-layer neural network designed for image recognition. However, in 1969, Marvin Minsky and Seymour Papert published the book 'Perceptrons', proving that single-layer networks could not solve non-linear problems like XOR. This led to a period called the first AI winter. In the 1980s, the backpropagation algorithm was popularized by Geoffrey Hinton, Yann LeCun, and Yoshua Bengio, allowing deep multi-layer neural networks to be trained efficiently. The massive breakthrough came in 2012 with AlexNet, a deep convolutional neural network that won the ImageNet challenge by a massive margin, initiating the modern era of deep learning and generative artificial intelligence.\nDeep learning is a subset of machine learning based on artificial neural networks with representation learning. The history of deep learning began with Rosenblatt's perceptron in 1957. Marvin Minsky and Seymour Papert proved that single-layer networks could not solve non-linear problems like XOR in 1969. In the 1980s, the backpropagation algorithm was popularized by Hinton, LeCun, and Bengio, allowing deep multi-layer networks to be trained. In 2012, AlexNet won the ImageNet challenge by a huge margin, starting the modern deep learning era.\nProgramming languages are the primary tools us",
    "921": "Deep learning is a subset of machine learning that is based on artificial neural networks with representation learning. The history of deep learning began with the perceptron in 1957, invented by Frank Rosenblatt. Rosenblatt's perceptron was a single-layer neural network designed for image recognition. However, in 1969, Marvin Minsky and Seymour Papert published the book 'Perceptrons', proving that single-layer networks could not solve non-linear problems like XOR. This led to a period called the first AI winter. In the 1980s, the backpropagation algorithm was popularized by Geoffrey Hinton, Yann LeCun, and Yoshua Bengio, allowing deep multi-layer neural networks to be trained efficiently. The massive breakthrough came in 2012 with AlexNet, a deep convolutional neural network that won the ImageNet challenge by a massive margin, initiating the modern era of deep learning and generative artificial intelligence.\nDeep learning is a subset of machine learning based on artificial neural networks with representation learning. The history of deep learning began with Rosenblatt's perceptron in 1957. Marvin Minsky and Seymour Papert proved that single-layer networks could not solve non-linear problems like XOR in 1969. In the 1980s, the backpropagation algorithm was popularized by Hinton, LeCun, and Bengio, allowing deep multi-layer networks to be trained. In 2012, AlexNet won the ImageNet challenge by a huge margin, starting the modern deep learning era.\nProgramming languages are the primary tools used by ",
    "922": "Deep learning is a subset of machine learning that is based on artificial neural networks with representation learning. The history of deep learning began with the perceptron in 1957, invented by Frank Rosenblatt. Rosenblatt's perceptron was a single-layer neural network designed for image recognition. However, in 1969, Marvin Minsky and Seymour Papert published the book 'Perceptrons', proving that single-layer networks could not solve non-linear problems like XOR. This led to a period called the first AI winter. In the 1980s, the backpropagation algorithm was popularized by Geoffrey Hinton, Yann LeCun, and Yoshua Bengio, allowing deep multi-layer neural networks to be trained efficiently. The massive breakthrough came in 2012 with AlexNet, a deep convolutional neural network that won the ImageNet challenge by a massive margin, initiating the modern era of deep learning and generative artificial intelligence.\nDeep learning is a subset of machine learning based on artificial neural networks with representation learning. The history of deep learning began with Rosenblatt's perceptron in 1957. Marvin Minsky and Seymour Papert proved that single-layer networks could not solve non-linear problems like XOR in 1969. In the 1980s, the backpropagation algorithm was popularized by Hinton, LeCun, and Bengio, allowing deep multi-layer networks to be trained. In 2012, AlexNet won the ImageNet challenge by a huge margin, starting the modern deep learning era.\nProgramming languages are the primary tools used by devel",
    "923": "Deep learning is a subset of machine learning that is based on artificial neural networks with representation learning. The history of deep learning began with the perceptron in 1957, invented by Frank Rosenblatt. Rosenblatt's perceptron was a single-layer neural network designed for image recognition. However, in 1969, Marvin Minsky and Seymour Papert published the book 'Perceptrons', proving that single-layer networks could not solve non-linear problems like XOR. This led to a period called the first AI winter. In the 1980s, the backpropagation algorithm was popularized by Geoffrey Hinton, Yann LeCun, and Yoshua Bengio, allowing deep multi-layer neural networks to be trained efficiently. The massive breakthrough came in 2012 with AlexNet, a deep convolutional neural network that won the ImageNet challenge by a massive margin, initiating the modern era of deep learning and generative artificial intelligence.\nDeep learning is a subset of machine learning based on artificial neural networks with representation learning. The history of deep learning began with Rosenblatt's perceptron in 1957. Marvin Minsky and Seymour Papert proved that single-layer networks could not solve non-linear problems like XOR in 1969. In the 1980s, the backpropagation algorithm was popularized by Hinton, LeCun, and Bengio, allowing deep multi-layer networks to be trained. In 2012, AlexNet won the ImageNet challenge by a huge margin, starting the modern deep learning era.\nProgramming languages are the primary tools used by developer",
    "924": "Deep learning is a subset of machine learning that is based on artificial neural networks with representation learning. The history of deep learning began with the perceptron in 1957, invented by Frank Rosenblatt. Rosenblatt's perceptron was a single-layer neural network designed for image recognition. However, in 1969, Marvin Minsky and Seymour Papert published the book 'Perceptrons', proving that single-layer networks could not solve non-linear problems like XOR. This led to a period called the first AI winter. In the 1980s, the backpropagation algorithm was popularized by Geoffrey Hinton, Yann LeCun, and Yoshua Bengio, allowing deep multi-layer neural networks to be trained efficiently. The massive breakthrough came in 2012 with AlexNet, a deep convolutional neural network that won the ImageNet challenge by a massive margin, initiating the modern era of deep learning and generative artificial intelligence.\nDeep learning is a subset of machine learning based on artificial neural networks with representation learning. The history of deep learning began with Rosenblatt's perceptron in 1957. Marvin Minsky and Seymour Papert proved that single-layer networks could not solve non-linear problems like XOR in 1969. In the 1980s, the backpropagation algorithm was popularized by Hinton, LeCun, and Bengio, allowing deep multi-layer networks to be trained. In 2012, AlexNet won the ImageNet challenge by a huge margin, starting the modern deep learning era.\nProgramming languages are the primary tools used by developers to ",
    "925": "Deep learning is a subset of machine learning that is based on artificial neural networks with representation learning. The history of deep learning began with the perceptron in 1957, invented by Frank Rosenblatt. Rosenblatt's perceptron was a single-layer neural network designed for image recognition. However, in 1969, Marvin Minsky and Seymour Papert published the book 'Perceptrons', proving that single-layer networks could not solve non-linear problems like XOR. This led to a period called the first AI winter. In the 1980s, the backpropagation algorithm was popularized by Geoffrey Hinton, Yann LeCun, and Yoshua Bengio, allowing deep multi-layer neural networks to be trained efficiently. The massive breakthrough came in 2012 with AlexNet, a deep convolutional neural network that won the ImageNet challenge by a massive margin, initiating the modern era of deep learning and generative artificial intelligence.\nDeep learning is a subset of machine learning based on artificial neural networks with representation learning. The history of deep learning began with Rosenblatt's perceptron in 1957. Marvin Minsky and Seymour Papert proved that single-layer networks could not solve non-linear problems like XOR in 1969. In the 1980s, the backpropagation algorithm was popularized by Hinton, LeCun, and Bengio, allowing deep multi-layer networks to be trained. In 2012, AlexNet won the ImageNet challenge by a huge margin, starting the modern deep learning era.\nProgramming languages are the primary tools used by developers to co",
    "926": "Deep learning is a subset of machine learning that is based on artificial neural networks with representation learning. The history of deep learning began with the perceptron in 1957, invented by Frank Rosenblatt. Rosenblatt's perceptron was a single-layer neural network designed for image recognition. However, in 1969, Marvin Minsky and Seymour Papert published the book 'Perceptrons', proving that single-layer networks could not solve non-linear problems like XOR. This led to a period called the first AI winter. In the 1980s, the backpropagation algorithm was popularized by Geoffrey Hinton, Yann LeCun, and Yoshua Bengio, allowing deep multi-layer neural networks to be trained efficiently. The massive breakthrough came in 2012 with AlexNet, a deep convolutional neural network that won the ImageNet challenge by a massive margin, initiating the modern era of deep learning and generative artificial intelligence.\nDeep learning is a subset of machine learning based on artificial neural networks with representation learning. The history of deep learning began with Rosenblatt's perceptron in 1957. Marvin Minsky and Seymour Papert proved that single-layer networks could not solve non-linear problems like XOR in 1969. In the 1980s, the backpropagation algorithm was popularized by Hinton, LeCun, and Bengio, allowing deep multi-layer networks to be trained. In 2012, AlexNet won the ImageNet challenge by a huge margin, starting the modern deep learning era.\nProgramming languages are the primary tools used by developers to comm",
[...]
